/**
  ******************************************************************************
  * @file    model_uint8.h
  * @author  Борисов Руслан
  * @brief   Заголовочный файл с данными квантованной модели TFLite (uint8)
  * @date    15.03.2026
  *
  * @details Этот файл содержит объявление массива с бинарными данными модели
  *          TensorFlow Lite, сконвертированной в формат C-массива с помощью
  *          xxd или аналогичного инструмента. Модель квантована в uint8 для
  *          эффективного выполнения на микроконтроллере.
  *
  * @note    Модель должна быть сконвертирована с помощью:
  *          xxd -i model.tflite > model_uint8.h
  *          или с помощью инструментов TensorFlow Lite for Microcontrollers
  *
  * @warning Массив должен быть выровнен на границу 16 байт для оптимального
  *          доступа к памяти на ARM Cortex-M
  ******************************************************************************
  */

/* Define to prevent recursive inclusion -------------------------------------*/
#ifndef MODEL_UINT8_H
#define MODEL_UINT8_H

#ifdef __cplusplus
extern "C" {
#endif

/*============================================================================
 *                               ВКЛЮЧАЕМЫЕ ФАЙЛЫ
 *============================================================================*/
#include <stdint.h>

/*============================================================================
 *                              КОНСТАНТЫ
 *============================================================================*/

alignas(16) const unsigned char model_uint8[] = {
  0x1c, 0x00, 0x00, 0x00, 0x54, 0x46, 0x4c, 0x33, 0x14, 0x00, 0x20, 0x00, 
  0x1c, 0x00, 0x18, 0x00, 0x14, 0x00, 0x10, 0x00, 0x0c, 0x00, 0x00, 0x00, 
  0x08, 0x00, 0x04, 0x00, 0x14, 0x00, 0x00, 0x00, 0x1c, 0x00, 0x00, 0x00, 
  0x84, 0x00, 0x00, 0x00, 0xdc, 0x00, 0x00, 0x00, 0xec, 0x24, 0x00, 0x00, 
  0xfc, 0x24, 0x00, 0x00, 0xa8, 0x38, 0x00, 0x00, 0x03, 0x00, 0x00, 0x00, 
  0x01, 0x00, 0x00, 0x00, 0x04, 0x00, 0x00, 0x00, 0xea, 0xd9, 0xff, 0xff, 
  0x0c, 0x00, 0x00, 0x00, 0x1c, 0x00, 0x00, 0x00, 0x3c, 0x00, 0x00, 0x00, 
  0x0f, 0x00, 0x00, 0x00, 0x73, 0x65, 0x72, 0x76, 0x69, 0x6e, 0x67, 0x5f, 
  0x64, 0x65, 0x66, 0x61, 0x75, 0x6c, 0x74, 0x00, 0x01, 0x00, 0x00, 0x00, 
  0x04, 0x00, 0x00, 0x00, 0x98, 0xff, 0xff, 0xff, 0x18, 0x00, 0x00, 0x00, 
  0x04, 0x00, 0x00, 0x00, 0x08, 0x00, 0x00, 0x00, 0x6f, 0x75, 0x74, 0x70, 
  0x75, 0x74, 0x5f, 0x30, 0x00, 0x00, 0x00, 0x00, 0x01, 0x00, 0x00, 0x00, 
  0x04, 0x00, 0x00, 0x00, 0xf2, 0xd9, 0xff, 0xff, 0x04, 0x00, 0x00, 0x00, 
  0x05, 0x00, 0x00, 0x00, 0x69, 0x6e, 0x70, 0x75, 0x74, 0x00, 0x00, 0x00, 
  0x02, 0x00, 0x00, 0x00, 0x34, 0x00, 0x00, 0x00, 0x04, 0x00, 0x00, 0x00, 
  0xdc, 0xff, 0xff, 0xff, 0x1b, 0x00, 0x00, 0x00, 0x04, 0x00, 0x00, 0x00, 
  0x13, 0x00, 0x00, 0x00, 0x43, 0x4f, 0x4e, 0x56, 0x45, 0x52, 0x53, 0x49, 
  0x4f, 0x4e, 0x5f, 0x4d, 0x45, 0x54, 0x41, 0x44, 0x41, 0x54, 0x41, 0x00, 
  0x08, 0x00, 0x0c, 0x00, 0x08, 0x00, 0x04, 0x00, 0x08, 0x00, 0x00, 0x00, 
  0x1a, 0x00, 0x00, 0x00, 0x04, 0x00, 0x00, 0x00, 0x13, 0x00, 0x00, 0x00, 
  0x6d, 0x69, 0x6e, 0x5f, 0x72, 0x75, 0x6e, 0x74, 0x69, 0x6d, 0x65, 0x5f, 
  0x76, 0x65, 0x72, 0x73, 0x69, 0x6f, 0x6e, 0x00, 0x1c, 0x00, 0x00, 0x00, 
  0x0c, 0x24, 0x00, 0x00, 0x04, 0x24, 0x00, 0x00, 0xf0, 0x23, 0x00, 0x00, 
  0xdc, 0x23, 0x00, 0x00, 0xc8, 0x23, 0x00, 0x00, 0xa8, 0x23, 0x00, 0x00, 
  0x58, 0x23, 0x00, 0x00, 0x08, 0x23, 0x00, 0x00, 0xf8, 0x02, 0x00, 0x00, 
  0xc8, 0x02, 0x00, 0x00, 0x98, 0x01, 0x00, 0x00, 0x78, 0x01, 0x00, 0x00, 
  0xfc, 0x00, 0x00, 0x00, 0xf4, 0x00, 0x00, 0x00, 0xec, 0x00, 0x00, 0x00, 
  0xe4, 0x00, 0x00, 0x00, 0xdc, 0x00, 0x00, 0x00, 0xd4, 0x00, 0x00, 0x00, 
  0xcc, 0x00, 0x00, 0x00, 0xc4, 0x00, 0x00, 0x00, 0xbc, 0x00, 0x00, 0x00, 
  0xb4, 0x00, 0x00, 0x00, 0xac, 0x00, 0x00, 0x00, 0xa4, 0x00, 0x00, 0x00, 
  0x9c, 0x00, 0x00, 0x00, 0x94, 0x00, 0x00, 0x00, 0x74, 0x00, 0x00, 0x00, 
  0x04, 0x00, 0x00, 0x00, 0xd6, 0xda, 0xff, 0xff, 0x04, 0x00, 0x00, 0x00, 
  0x60, 0x00, 0x00, 0x00, 0x0c, 0x00, 0x00, 0x00, 0x08, 0x00, 0x0e, 0x00, 
  0x08, 0x00, 0x04, 0x00, 0x08, 0x00, 0x00, 0x00, 0x10, 0x00, 0x00, 0x00, 
  0x28, 0x00, 0x00, 0x00, 0x00, 0x00, 0x06, 0x00, 0x08, 0x00, 0x04, 0x00, 
  0x06, 0x00, 0x00, 0x00, 0x04, 0x00, 0x00, 0x00, 0x01, 0x00, 0x00, 0x00, 
  0xeb, 0x03, 0x00, 0x00, 0x0c, 0x00, 0x18, 0x00, 0x14, 0x00, 0x10, 0x00, 
  0x0c, 0x00, 0x04, 0x00, 0x0c, 0x00, 0x00, 0x00, 0x8b, 0x84, 0x7b, 0xc8, 
  0x3f, 0x0c, 0x54, 0x0c, 0x02, 0x00, 0x00, 0x00, 0x02, 0x00, 0x00, 0x00, 
  0x04, 0x00, 0x00, 0x00, 0x06, 0x00, 0x00, 0x00, 0x32, 0x2e, 0x32, 0x31, 
  0x2e, 0x30, 0x00, 0x00, 0x42, 0xdb, 0xff, 0xff, 0x04, 0x00, 0x00, 0x00, 
  0x10, 0x00, 0x00, 0x00, 0x31, 0x2e, 0x31, 0x34, 0x2e, 0x30, 0x00, 0x00, 
  0x00, 0x00, 0x00, 0x00, 0x00, 0x00, 0x00, 0x00, 0x10, 0xca, 0xff, 0xff, 
  0x14, 0xca, 0xff, 0xff, 0x18, 0xca, 0xff, 0xff, 0x1c, 0xca, 0xff, 0xff, 
  0x20, 0xca, 0xff, 0xff, 0x24, 0xca, 0xff, 0xff, 0x28, 0xca, 0xff, 0xff, 
  0x2c, 0xca, 0xff, 0xff, 0x30, 0xca, 0xff, 0xff, 0x34, 0xca, 0xff, 0xff, 
  0x38, 0xca, 0xff, 0xff, 0x3c, 0xca, 0xff, 0xff, 0x40, 0xca, 0xff, 0xff, 
  0x92, 0xdb, 0xff, 0xff, 0x04, 0x00, 0x00, 0x00, 0x6c, 0x00, 0x00, 0x00, 
  0xb6, 0x2c, 0xce, 0xd0, 0x7f, 0xae, 0x6b, 0xcc, 0x10, 0xb1, 0x27, 0x1a, 
  0x2e, 0x4b, 0xad, 0xca, 0xcf, 0xfe, 0xef, 0x1f, 0xca, 0x31, 0x69, 0xf4, 
  0x25, 0x4f, 0x57, 0x57, 0x6d, 0x63, 0x25, 0xea, 0x7f, 0x63, 0x4b, 0x16, 
  0x28, 0x7d, 0x51, 0xdf, 0xbb, 0x00, 0x25, 0x74, 0x57, 0x00, 0x5e, 0x06, 
  0xb6, 0x20, 0x5e, 0x97, 0x0a, 0x62, 0x81, 0x08, 0x32, 0x3d, 0x7c, 0x6b, 
  0x0b, 0x63, 0x44, 0xe1, 0xe5, 0xda, 0x72, 0xba, 0x14, 0x71, 0xe0, 0x73, 
  0x87, 0x05, 0xfb, 0xe1, 0xc8, 0x81, 0x3e, 0x2d, 0x8f, 0xcd, 0x58, 0xcf, 
  0xd8, 0xc9, 0x2e, 0x77, 0x4a, 0x48, 0x10, 0x5c, 0x22, 0xd2, 0xe9, 0x1e, 
  0x61, 0xe9, 0xff, 0xdc, 0x24, 0x31, 0xe8, 0x7f, 0xc1, 0xb1, 0x21, 0xd2, 
  0x0a, 0xdc, 0xff, 0xff, 0x04, 0x00, 0x00, 0x00, 0x10, 0x00, 0x00, 0x00, 
  0x10, 0x17, 0x00, 0x00, 0x9d, 0xf9, 0xff, 0xff, 0xcf, 0x01, 0x00, 0x00, 
  0x27, 0x0e, 0x00, 0x00, 0x26, 0xdc, 0xff, 0xff, 0x04, 0x00, 0x00, 0x00, 
  0x20, 0x01, 0x00, 0x00, 0x5b, 0x2f, 0x40, 0x7f, 0x3a, 0x2c, 0xcd, 0x50, 
  0x25, 0x03, 0xcc, 0x30, 0xf3, 0x11, 0xdf, 0x6a, 0x60, 0xfb, 0xc1, 0x0d, 
  0xe7, 0x07, 0x1d, 0x3e, 0x55, 0x4d, 0x3a, 0x0e, 0x67, 0xfe, 0xef, 0x38, 
  0x6b, 0xf4, 0x2a, 0x51, 0x34, 0x01, 0x0a, 0x4b, 0x5e, 0x06, 0xd1, 0x3f, 
  0x64, 0x4f, 0xb0, 0xea, 0x68, 0x1c, 0x1a, 0x7f, 0xe9, 0x36, 0xf5, 0x58, 
  0x41, 0x4f, 0xef, 0x38, 0x03, 0x20, 0x1c, 0x69, 0x35, 0x46, 0x17, 0x22, 
  0x31, 0xd8, 0x1e, 0xde, 0xa9, 0x40, 0x22, 0x19, 0xc8, 0xfa, 0x0c, 0xca, 
  0xda, 0x5a, 0xbc, 0x6a, 0xd7, 0xc1, 0x60, 0x00, 0xc5, 0x62, 0x3e, 0x31, 
  0xeb, 0x32, 0x57, 0x7f, 0x1b, 0xc3, 0xdb, 0xce, 0x37, 0xbd, 0x2c, 0xe9, 
  0x90, 0x30, 0x5c, 0xb5, 0x39, 0x3c, 0x4b, 0x72, 0xea, 0x41, 0x47, 0x21, 
  0x4b, 0xeb, 0x3f, 0x6f, 0xdd, 0xec, 0x74, 0x55, 0x20, 0xb4, 0x62, 0x7c, 
  0x7e, 0x0c, 0x52, 0x7f, 0x58, 0xe8, 0x24, 0x45, 0x74, 0xd8, 0x4f, 0xda, 
  0xf6, 0x93, 0x55, 0x4c, 0x06, 0x7e, 0x61, 0x79, 0x8b, 0xc0, 0x21, 0xb6, 
  0x08, 0x66, 0xe0, 0x23, 0x03, 0x4b, 0xb6, 0x7e, 0x6b, 0x20, 0x24, 0xd1, 
  0x92, 0x34, 0x50, 0xdb, 0x28, 0xbb, 0x48, 0x7c, 0x1b, 0x59, 0x5b, 0x7f, 
  0xc7, 0xbc, 0x4c, 0x03, 0xb0, 0x58, 0x27, 0xe5, 0x25, 0xe6, 0x6e, 0x72, 
  0xdb, 0x52, 0xdf, 0xe4, 0x07, 0x74, 0x3a, 0x6e, 0x85, 0x3c, 0x7f, 0x08, 
  0xa3, 0xb6, 0xd7, 0xf4, 0xcc, 0xf7, 0x68, 0x09, 0xc6, 0x06, 0x56, 0x54, 
  0xca, 0xd7, 0x74, 0xa4, 0x34, 0x78, 0x7f, 0x35, 0xa7, 0x71, 0x10, 0xa8, 
  0xb6, 0x49, 0x1b, 0x46, 0x4b, 0x76, 0xab, 0xdf, 0x28, 0x3f, 0x63, 0xe8, 
  0x98, 0xda, 0xe7, 0x66, 0xe2, 0xc9, 0xf1, 0x70, 0xb3, 0x4b, 0xb5, 0x4e, 
  0xeb, 0x58, 0x65, 0x1e, 0x32, 0x67, 0xa2, 0x32, 0x12, 0x0b, 0xfe, 0x7f, 
  0x3f, 0x49, 0x1d, 0xfe, 0xc4, 0x35, 0xf7, 0x0b, 0xd5, 0x53, 0xd9, 0x33, 
  0x4f, 0x10, 0x26, 0x39, 0xfc, 0xea, 0x39, 0xc1, 0x21, 0x42, 0xfd, 0x53, 
  0xfe, 0x48, 0xf2, 0xe1, 0x52, 0xdd, 0xff, 0xff, 0x04, 0x00, 0x00, 0x00, 
  0x20, 0x00, 0x00, 0x00, 0xec, 0xff, 0xff, 0xff, 0x9e, 0xfe, 0xff, 0xff, 
  0x87, 0x01, 0x00, 0x00, 0xf6, 0xfd, 0xff, 0xff, 0xb4, 0xff, 0xff, 0xff, 
  0x71, 0x02, 0x00, 0x00, 0x62, 0xfe, 0xff, 0xff, 0xf4, 0xfd, 0xff, 0xff, 
  0x7e, 0xdd, 0xff, 0xff, 0x04, 0x00, 0x00, 0x00, 0x00, 0x20, 0x00, 0x00, 
  0x4e, 0x41, 0xcf, 0x38, 0x09, 0xfd, 0x4b, 0x1c, 0x17, 0xf4, 0xe3, 0x02, 
  0x35, 0x2b, 0xc9, 0xf6, 0xe6, 0x16, 0xe1, 0xf9, 0xeb, 0x0a, 0xe6, 0x35, 
  0xe8, 0x44, 0xce, 0x1e, 0xcd, 0x49, 0xd4, 0x4c, 0x48, 0x41, 0x3f, 0xe0, 
  0x01, 0x3f, 0x47, 0x3e, 0x35, 0xfd, 0x48, 0x0f, 0x0a, 0x3f, 0xcd, 0xd6, 
  0x01, 0x42, 0x4e, 0x08, 0xe2, 0x28, 0xdf, 0x00, 0x39, 0x13, 0xfe, 0x27, 
  0x0c, 0xc5, 0x26, 0x1c, 0x41, 0xf7, 0x2c, 0x48, 0xf5, 0x11, 0xe6, 0x49, 
  0xd7, 0x21, 0xe1, 0xf8, 0x3a, 0xf4, 0x27, 0xcb, 0xe9, 0x17, 0x01, 0xd6, 
  0x26, 0x0d, 0x0a, 0xdd, 0xf5, 0xf3, 0x24, 0x45, 0x2b, 0x16, 0x38, 0xf6, 
  0xde, 0xfc, 0x14, 0x56, 0x48, 0x34, 0xfd, 0x42, 0x26, 0x52, 0xf6, 0x3b, 
  0xfe, 0x0f, 0x1e, 0xf2, 0x11, 0x21, 0x35, 0xe8, 0x09, 0x2b, 0xfc, 0xf9, 
  0x2b, 0x4e, 0xda, 0xf2, 0xe3, 0x1f, 0xd2, 0xf0, 0xdd, 0x42, 0x05, 0x39, 
  0x4a, 0x11, 0x2b, 0x05, 0x49, 0xfb, 0xed, 0x18, 0xd0, 0x2b, 0x01, 0xdd, 
  0x5c, 0x61, 0x17, 0x0e, 0x0c, 0x19, 0xff, 0x1c, 0x14, 0x6b, 0xd2, 0x3f, 
  0xca, 0xe3, 0x41, 0x3f, 0x0c, 0x4c, 0x37, 0x08, 0x22, 0x29, 0xeb, 0x20, 
  0x44, 0xf0, 0xff, 0x2b, 0x5a, 0xfb, 0x45, 0x00, 0xf5, 0xef, 0xd8, 0x2b, 
  0xd9, 0x2a, 0xdc, 0xf4, 0x2e, 0x27, 0x0d, 0x42, 0xfd, 0xf5, 0x33, 0x32, 
  0xea, 0xe7, 0xf3, 0xd4, 0x38, 0xe1, 0x2f, 0x12, 0x3b, 0x4b, 0x42, 0xfd, 
  0x32, 0x31, 0xc1, 0xfd, 0x50, 0x23, 0xfa, 0xdd, 0xc3, 0xc2, 0x25, 0xc0, 
  0x08, 0xcc, 0xdd, 0x3d, 0xb8, 0xc8, 0x00, 0x12, 0x9f, 0xc9, 0xf8, 0xca, 
  0x9e, 0xe8, 0x1f, 0xb4, 0xeb, 0xeb, 0x2b, 0x73, 0x37, 0x3c, 0x1f, 0x36, 
  0x35, 0x3f, 0x60, 0x35, 0x58, 0x45, 0x50, 0x07, 0x3c, 0xe9, 0x45, 0x38, 
  0x25, 0x42, 0xd6, 0xd5, 0x24, 0xf4, 0x22, 0x26, 0xf8, 0xd6, 0x33, 0x24, 
  0x2f, 0x2b, 0xf9, 0x3b, 0xf0, 0xde, 0x32, 0xfb, 0x4b, 0x07, 0xdc, 0xd0, 
  0x1e, 0xc4, 0xf4, 0x1f, 0x10, 0xdd, 0x1c, 0xe2, 0xa5, 0xd0, 0xed, 0xc3, 
  0x8b, 0xe6, 0xaa, 0x1b, 0xa8, 0xd5, 0xe6, 0xfc, 0xf5, 0xea, 0xfe, 0x51, 
  0xd0, 0x0f, 0xc9, 0xdd, 0x5b, 0x23, 0x1d, 0x23, 0x42, 0x20, 0x14, 0xdf, 
  0x21, 0x15, 0x19, 0x13, 0xd7, 0xed, 0xe8, 0x0b, 0x44, 0xef, 0x00, 0xf6, 
  0xe5, 0x1a, 0x3d, 0xdb, 0x3a, 0x07, 0x11, 0xdb, 0x26, 0x43, 0x0b, 0x07, 
  0x7f, 0x11, 0x34, 0x41, 0xf0, 0xd6, 0xb5, 0x2b, 0x27, 0x20, 0xdf, 0x0a, 
  0xdd, 0xc0, 0xb2, 0x1d, 0x02, 0xc0, 0xdc, 0x0f, 0x28, 0xb9, 0xb4, 0x0d, 
  0xc6, 0xfe, 0xbb, 0xf5, 0x11, 0x22, 0xf8, 0x1a, 0x2c, 0xfb, 0xd0, 0xeb, 
  0x14, 0x31, 0x08, 0xf6, 0x4e, 0x3e, 0xd3, 0x14, 0xdd, 0x4d, 0xd3, 0xc8, 
  0xf6, 0x25, 0xf8, 0x27, 0x44, 0x0d, 0x07, 0xf1, 0xdf, 0x1e, 0xd3, 0x11, 
  0x27, 0x03, 0x05, 0xf5, 0x14, 0x40, 0xf8, 0xd3, 0x28, 0xe8, 0x05, 0x47, 
  0x1d, 0x53, 0xb0, 0xd4, 0xe5, 0xec, 0x12, 0xc2, 0xf2, 0x0d, 0xbc, 0x52, 
  0x22, 0xf8, 0xb6, 0x33, 0x0c, 0x3c, 0xd0, 0xef, 0xe6, 0xd1, 0xd7, 0xfb, 
  0xf4, 0x43, 0xc9, 0xf3, 0x04, 0x41, 0x1d, 0x1d, 0xee, 0xdb, 0x42, 0x10, 
  0x32, 0x30, 0xde, 0x3d, 0x2c, 0x47, 0xee, 0xdd, 0xf6, 0x36, 0xda, 0x00, 
  0xe5, 0x05, 0x22, 0x4c, 0xcf, 0xdd, 0x10, 0x3a, 0xf8, 0xf1, 0xef, 0xda, 
  0xf9, 0xe2, 0xff, 0xd1, 0x4c, 0x13, 0xdc, 0xf4, 0xd3, 0x07, 0xe8, 0xde, 
  0xd8, 0x4f, 0x3c, 0xff, 0x20, 0x1c, 0x19, 0x0d, 0x0d, 0x15, 0x2b, 0x3b, 
  0xc5, 0x15, 0x11, 0x35, 0xea, 0xff, 0xf5, 0xdf, 0xdf, 0xf7, 0xee, 0xf0, 
  0x3a, 0xfd, 0xd6, 0x34, 0x41, 0x14, 0x41, 0x16, 0xe6, 0x00, 0xf8, 0xf0, 
  0xda, 0xd3, 0xf0, 0x0e, 0x04, 0x19, 0x08, 0xfd, 0xf9, 0xe6, 0xe9, 0x01, 
  0xd8, 0x25, 0x10, 0x12, 0x1a, 0x17, 0xe6, 0x07, 0xd4, 0xde, 0xee, 0x27, 
  0x0d, 0xe3, 0x01, 0xda, 0xca, 0xda, 0xee, 0x15, 0xe2, 0xff, 0x02, 0xf9, 
  0xdc, 0x22, 0x27, 0xe3, 0x22, 0x26, 0xee, 0x23, 0xd2, 0x17, 0xfc, 0x16, 
  0xf1, 0x29, 0x1e, 0x11, 0xf1, 0xd3, 0xe0, 0x1c, 0xd9, 0x1f, 0xde, 0xeb, 
  0xe4, 0xee, 0xd5, 0xf3, 0xf9, 0xf5, 0xf8, 0x1f, 0xf3, 0xf3, 0xd9, 0x0a, 
  0xdc, 0xf3, 0xf5, 0xe5, 0xd6, 0x2a, 0xd6, 0x0d, 0xe8, 0x03, 0x09, 0x17, 
  0xfd, 0xeb, 0x1c, 0x14, 0x00, 0x00, 0xde, 0x07, 0x01, 0x06, 0xea, 0x2b, 
  0x14, 0xf2, 0xfb, 0xd8, 0xf0, 0xe2, 0x10, 0xf3, 0xec, 0x27, 0x1c, 0x16, 
  0x09, 0x10, 0xd7, 0xe6, 0xe2, 0xe8, 0xeb, 0x01, 0x08, 0xf5, 0x0c, 0x08, 
  0xe8, 0x09, 0x03, 0xdf, 0xe6, 0x1a, 0x00, 0xff, 0xfd, 0x23, 0xf9, 0x04, 
  0xe8, 0xe6, 0x1d, 0x33, 0x12, 0x0b, 0xf2, 0xef, 0xf5, 0xdd, 0x19, 0xd6, 
  0xf5, 0x04, 0x09, 0xfe, 0x30, 0x07, 0xc2, 0x08, 0xe1, 0x14, 0xdb, 0x21, 
  0x31, 0x40, 0xd3, 0x14, 0xed, 0xe6, 0xf5, 0xff, 0x52, 0x19, 0xc6, 0x19, 
  0xfc, 0xf7, 0x05, 0x18, 0xf2, 0x1c, 0xe7, 0x0f, 0x31, 0xfd, 0xea, 0xef, 
  0x1b, 0xd9, 0x28, 0x00, 0x16, 0x00, 0xfe, 0xd8, 0x03, 0x07, 0x11, 0xee, 
  0xf5, 0xfb, 0x29, 0x01, 0x27, 0xfe, 0x0d, 0x12, 0x1a, 0xdc, 0x25, 0x26, 
  0x28, 0x27, 0xf6, 0x3f, 0x24, 0xd1, 0x1a, 0x1f, 0x4e, 0x23, 0xe6, 0x15, 
  0x0a, 0x23, 0xe2, 0xeb, 0x73, 0x4b, 0x2b, 0x28, 0x09, 0x2f, 0x2a, 0x0d, 
  0x41, 0xf8, 0xe3, 0x17, 0xea, 0xed, 0x16, 0x1e, 0x00, 0x28, 0xe4, 0x2b, 
  0xe8, 0xdd, 0xd8, 0xda, 0x12, 0x09, 0x0c, 0x13, 0x06, 0xf7, 0xef, 0xd5, 
  0xd8, 0xe6, 0xd5, 0x26, 0x1e, 0xf0, 0xfe, 0x03, 0x17, 0xd9, 0x1c, 0xfa, 
  0x19, 0x15, 0xd1, 0x02, 0xff, 0x04, 0x22, 0x18, 0x02, 0xf3, 0x1b, 0xfe, 
  0x7f, 0x41, 0xef, 0x22, 0x22, 0xee, 0x21, 0x07, 0x7c, 0x07, 0x25, 0x23, 
  0xec, 0xea, 0x2b, 0x30, 0x49, 0x3b, 0xda, 0xe5, 0x1a, 0xde, 0x02, 0x1a, 
  0xf9, 0xfd, 0xe2, 0x17, 0x07, 0x13, 0xd4, 0x03, 0xe4, 0xef, 0xec, 0x27, 
  0x16, 0xfa, 0xf2, 0xfd, 0xe6, 0x0b, 0xe6, 0xf4, 0xe9, 0x1f, 0xf0, 0xfd, 
  0xe9, 0x2a, 0x0a, 0xe1, 0x28, 0x03, 0xdf, 0x13, 0x1b, 0x1d, 0x25, 0x22, 
  0x1a, 0xf4, 0xe5, 0x16, 0x01, 0x26, 0x26, 0x45, 0xe5, 0xe2, 0x15, 0xfc, 
  0x25, 0x42, 0x1a, 0x3b, 0xf0, 0x21, 0xed, 0x22, 0x4a, 0x0f, 0x07, 0x20, 
  0xff, 0x12, 0x10, 0x03, 0x0e, 0x2e, 0x19, 0xee, 0x1c, 0xe1, 0xe9, 0xf8, 
  0x09, 0x11, 0xeb, 0x15, 0xe1, 0x21, 0x27, 0xe0, 0xff, 0xfa, 0xfe, 0xee, 
  0xe9, 0x09, 0x1e, 0xd6, 0x0c, 0xe2, 0xfb, 0x17, 0xfb, 0x11, 0x04, 0xe1, 
  0x10, 0x1f, 0x17, 0xe6, 0x18, 0xf8, 0x00, 0xf7, 0x0e, 0x11, 0xd9, 0x1e, 
  0x1e, 0x1b, 0xea, 0x10, 0xfc, 0xf5, 0xca, 0xe5, 0xfb, 0xca, 0xd4, 0x20, 
  0x2d, 0x02, 0x07, 0xdd, 0x00, 0xe7, 0x1b, 0x1c, 0xd6, 0x17, 0x11, 0xe1, 
  0xf7, 0xf8, 0x0c, 0x0c, 0xf4, 0xe6, 0x16, 0x25, 0x1c, 0x28, 0xff, 0xf1, 
  0xda, 0x2a, 0x0c, 0x03, 0xf1, 0xd6, 0xfd, 0x07, 0xca, 0xf0, 0xee, 0xf5, 
  0x08, 0x07, 0x01, 0x01, 0xf4, 0x11, 0x20, 0x06, 0x13, 0x02, 0xf7, 0xfe, 
  0x1e, 0xee, 0x08, 0xe7, 0xe5, 0xf4, 0x1a, 0x15, 0xd8, 0x11, 0xd7, 0xe8, 
  0x0f, 0xdc, 0x11, 0x06, 0xf3, 0xdf, 0xda, 0xf4, 0x1c, 0x0e, 0xe8, 0xd9, 
  0x1f, 0x02, 0x03, 0x2a, 0x29, 0xd5, 0x1e, 0x26, 0x21, 0xf4, 0xf4, 0xe2, 
  0xea, 0xea, 0xdc, 0xf9, 0xb2, 0xb6, 0xb8, 0x26, 0xca, 0x26, 0x29, 0x96, 
  0x6e, 0x66, 0x88, 0x62, 0xcb, 0x6b, 0x61, 0xc0, 0x31, 0xa2, 0xae, 0x9f, 
  0x08, 0x10, 0xa4, 0x3c, 0xe5, 0x34, 0x6c, 0xac, 0x31, 0xfa, 0x20, 0x59, 
  0x08, 0x99, 0x08, 0x2b, 0xd8, 0xf9, 0xd8, 0x45, 0xb6, 0xf7, 0x8e, 0xad, 
  0x3a, 0x0b, 0x9e, 0xf7, 0x2f, 0x3a, 0x69, 0x43, 0xb0, 0x50, 0x35, 0xf1, 
  0xb1, 0xde, 0x30, 0x1e, 0x16, 0xd6, 0x4a, 0x66, 0x00, 0xcc, 0xe9, 0xa9, 
  0xa5, 0xcc, 0x6c, 0x4e, 0x5f, 0xd7, 0x92, 0x2e, 0xd7, 0x56, 0x8c, 0xda, 
  0x2d, 0x5e, 0xac, 0x08, 0xe7, 0x19, 0x8d, 0xf7, 0x3e, 0xb3, 0xf8, 0xcb, 
  0x55, 0x27, 0x90, 0x65, 0xda, 0xcd, 0x8e, 0xef, 0x17, 0x04, 0xcb, 0x14, 
  0x52, 0xf7, 0x67, 0xdb, 0x8a, 0x2f, 0x33, 0xc4, 0x5d, 0x11, 0xf1, 0x4e, 
  0xc3, 0x41, 0x53, 0x91, 0xfe, 0x83, 0x0f, 0x9d, 0x26, 0x9a, 0x10, 0x3d, 
  0x3b, 0x16, 0x22, 0xd7, 0xdd, 0x9c, 0xcc, 0x88, 0xa3, 0x91, 0x53, 0x8c, 
  0xbf, 0x5a, 0x2b, 0x56, 0x71, 0x50, 0x20, 0x5d, 0xdc, 0xf3, 0x3e, 0xe9, 
  0x46, 0x56, 0xa7, 0xa0, 0x22, 0x64, 0x37, 0xab, 0xec, 0xd9, 0x70, 0x4e, 
  0xc7, 0xf1, 0x8b, 0xad, 0x12, 0x29, 0x27, 0x38, 0x31, 0xfa, 0x5a, 0xbc, 
  0xb1, 0xa1, 0x89, 0x2b, 0xfb, 0x55, 0x5d, 0x39, 0x4c, 0x67, 0xbe, 0xa6, 
  0xb3, 0x9a, 0xa2, 0xa6, 0xf1, 0x94, 0x42, 0xb6, 0xd2, 0x95, 0xdf, 0xd8, 
  0xc2, 0xf0, 0xe0, 0x67, 0xb4, 0x16, 0x4e, 0xbf, 0xfa, 0x40, 0x2e, 0xc7, 
  0x01, 0x96, 0x44, 0x93, 0xcc, 0xc9, 0x2a, 0x33, 0xd1, 0x07, 0xbb, 0x12, 
  0x27, 0xc8, 0x65, 0x12, 0xce, 0x70, 0xe1, 0x3d, 0xf5, 0xa0, 0x9d, 0x15, 
  0x0b, 0xea, 0x17, 0xf6, 0x69, 0x20, 0x38, 0x85, 0x41, 0x3b, 0xe6, 0xb0, 
  0x43, 0xc1, 0xa1, 0x12, 0x81, 0xb2, 0x3c, 0x6e, 0xe6, 0x89, 0xb1, 0x69, 
  0x21, 0x3d, 0x99, 0xf9, 0xfb, 0xfe, 0x5c, 0xfa, 0x58, 0xdf, 0x13, 0xc6, 
  0x23, 0xe4, 0x1d, 0xea, 0xd0, 0xf8, 0x41, 0x12, 0x3c, 0x5d, 0x1f, 0x6f, 
  0x58, 0x20, 0xf4, 0x32, 0xc2, 0x61, 0x8e, 0xb5, 0xdb, 0xe6, 0x0a, 0x0f, 
  0xc9, 0xee, 0xab, 0xf4, 0x1b, 0x1c, 0x99, 0x36, 0x3a, 0x57, 0x94, 0x83, 
  0xd7, 0xd0, 0x93, 0x63, 0xfe, 0x02, 0xd3, 0x9a, 0x29, 0xc9, 0x2e, 0x12, 
  0x43, 0xa0, 0x27, 0x02, 0x87, 0x91, 0xd7, 0xec, 0x9a, 0x62, 0x4d, 0x34, 
  0xd9, 0x2d, 0xd9, 0x30, 0xf6, 0xa1, 0xd8, 0x16, 0xa8, 0xaa, 0x92, 0x87, 
  0x96, 0x11, 0x20, 0x02, 0xc7, 0xe8, 0xf2, 0x74, 0x27, 0x0a, 0x55, 0xcf, 
  0x23, 0x65, 0x8c, 0x5b, 0x47, 0x15, 0x66, 0xfa, 0x47, 0xed, 0x31, 0x05, 
  0xa0, 0x56, 0x12, 0x13, 0x25, 0x8b, 0xc3, 0x6b, 0x63, 0xb3, 0x1f, 0xcd, 
  0xab, 0x90, 0x39, 0xe7, 0xe7, 0x5c, 0xfa, 0x49, 0x58, 0xf7, 0x1f, 0x1c, 
  0xc6, 0xa3, 0x1b, 0xf5, 0xa5, 0xa6, 0x5c, 0xe2, 0xab, 0x58, 0x4b, 0x42, 
  0xf5, 0x48, 0x6d, 0x94, 0x57, 0x9c, 0x48, 0x96, 0x4e, 0x55, 0xc4, 0x99, 
  0xbc, 0x8c, 0xc7, 0xcf, 0xf5, 0x54, 0xcc, 0xd8, 0xfc, 0x9a, 0xd8, 0x6a, 
  0x84, 0x33, 0xd7, 0xdf, 0x96, 0x01, 0xd5, 0x33, 0xdc, 0x12, 0xf0, 0xef, 
  0x27, 0xe4, 0x24, 0x4f, 0x35, 0xa2, 0x3e, 0x98, 0xe6, 0xe5, 0xcb, 0xf2, 
  0x94, 0x57, 0x01, 0x66, 0xc3, 0x9b, 0x6b, 0x43, 0xfd, 0x03, 0xd5, 0x26, 
  0x58, 0x25, 0xfb, 0xea, 0x28, 0xad, 0x39, 0xd2, 0x27, 0xdc, 0x5f, 0x62, 
  0xd0, 0x64, 0x22, 0x68, 0x5f, 0xc3, 0xeb, 0xa2, 0x9e, 0xb4, 0x47, 0x59, 
  0x6c, 0x3b, 0x26, 0x8b, 0xfb, 0xdf, 0xee, 0x9a, 0x8d, 0x39, 0xd2, 0x02, 
  0x60, 0x36, 0x94, 0x23, 0x60, 0x26, 0x16, 0x09, 0x08, 0x51, 0x20, 0xda, 
  0x0e, 0x2c, 0xdf, 0x04, 0x0e, 0x2a, 0xec, 0x23, 0xff, 0xd0, 0xfc, 0x41, 
  0x0a, 0xd6, 0xf2, 0x18, 0x0a, 0x0d, 0x43, 0x14, 0x0e, 0xda, 0x4d, 0xbd, 
  0xf4, 0xe3, 0x4a, 0x47, 0xe2, 0x44, 0xe0, 0x26, 0x0a, 0x3e, 0x01, 0x2f, 
  0xc1, 0x2b, 0x35, 0xf2, 0x38, 0x3f, 0x2a, 0x22, 0xc8, 0x2b, 0x33, 0xd3, 
  0xf3, 0xc9, 0xf3, 0x05, 0x00, 0x45, 0x1e, 0x32, 0x02, 0xb0, 0x3d, 0x1d, 
  0x30, 0x1f, 0x0b, 0x4d, 0x4e, 0x25, 0x1d, 0x09, 0x39, 0xd6, 0x3f, 0xd1, 
  0x19, 0x3b, 0xb0, 0x39, 0x02, 0xc2, 0x41, 0x02, 0x18, 0xc1, 0x00, 0xaa, 
  0xf6, 0x1a, 0x04, 0xe2, 0x20, 0x2d, 0x10, 0x0f, 0xc2, 0xf4, 0xfa, 0x3a, 
  0xb8, 0x20, 0xce, 0xcc, 0xb2, 0xc6, 0xb2, 0xdd, 0x0e, 0x11, 0xd9, 0x05, 
  0xdc, 0x13, 0x02, 0x22, 0xab, 0x2c, 0x1d, 0x13, 0xe3, 0xd4, 0x01, 0xd7, 
  0x0e, 0x21, 0xb5, 0x41, 0x0f, 0x28, 0x15, 0xcd, 0x21, 0x44, 0xe3, 0xd0, 
  0xff, 0x03, 0xfa, 0x24, 0x10, 0xae, 0x21, 0xf6, 0xb9, 0xd3, 0xd7, 0xc4, 
  0xb4, 0xd0, 0xdf, 0x04, 0xbc, 0x3a, 0xff, 0x25, 0xd3, 0x01, 0xcb, 0x23, 
  0xf0, 0xb6, 0xd8, 0x15, 0x31, 0x78, 0x18, 0x99, 0x51, 0x24, 0xc2, 0xfa, 
  0x43, 0x36, 0x99, 0xce, 0x3e, 0xbc, 0xbc, 0x46, 0xd3, 0xa8, 0xd4, 0x0e, 
  0xab, 0x05, 0xc5, 0xdb, 0xfb, 0xeb, 0x00, 0xcc, 0xaf, 0xe9, 0xb8, 0xfb, 
  0xab, 0x13, 0x0f, 0x06, 0xe1, 0xf3, 0xc7, 0xbd, 0x98, 0xab, 0x54, 0x12, 
  0xef, 0xf9, 0x50, 0xe8, 0xbd, 0xcb, 0x6c, 0x16, 0x43, 0xf5, 0xfd, 0x2d, 
  0x4b, 0x29, 0xf0, 0x48, 0xf6, 0x46, 0x39, 0x10, 0x4e, 0xf9, 0x2e, 0x52, 
  0x43, 0xe0, 0x38, 0x5f, 0x51, 0x52, 0xf2, 0x35, 0xf6, 0xfa, 0xdf, 0xf3, 
  0xb6, 0x39, 0x27, 0x0e, 0xa6, 0xbe, 0xe8, 0xeb, 0x27, 0xee, 0xdf, 0x29, 
  0xe0, 0x3a, 0xc3, 0x4a, 0xfe, 0x27, 0xc5, 0xfe, 0xf7, 0xdd, 0xd6, 0xb4, 
  0xae, 0xf6, 0xc1, 0xe0, 0xd7, 0xe1, 0xf4, 0x4a, 0xd1, 0x65, 0x41, 0x37, 
  0x24, 0x0e, 0x2f, 0x48, 0x7f, 0x6e, 0x24, 0xd9, 0x5c, 0xe7, 0xfe, 0x7e, 
  0x20, 0x0d, 0xfc, 0xf2, 0x50, 0x4b, 0x34, 0x2d, 0xf4, 0xef, 0xa6, 0x47, 
  0x24, 0x72, 0x5b, 0x67, 0xab, 0x2d, 0xe6, 0xfc, 0x44, 0x3b, 0x4d, 0xd9, 
  0xc5, 0xe9, 0x11, 0xca, 0xc4, 0x2d, 0x10, 0x43, 0xef, 0x16, 0x29, 0xfc, 
  0xeb, 0xf5, 0xd4, 0x45, 0xa9, 0x12, 0x00, 0x07, 0xc2, 0xd3, 0x20, 0xe9, 
  0xe5, 0x49, 0x69, 0x41, 0x63, 0x50, 0xcc, 0x33, 0x39, 0x2a, 0x4a, 0x20, 
  0x1f, 0x60, 0xf8, 0x34, 0xed, 0x26, 0x75, 0x21, 0x63, 0xfd, 0xeb, 0x16, 
  0x42, 0x4a, 0xbd, 0xc8, 0x56, 0x02, 0x59, 0x55, 0x2a, 0x1c, 0x46, 0x00, 
  0x07, 0xf3, 0xba, 0x30, 0x10, 0xc2, 0x1d, 0x2b, 0xdf, 0x0c, 0xe5, 0x3c, 
  0xb9, 0x29, 0xb2, 0x34, 0xe3, 0xf5, 0x3e, 0xbf, 0x01, 0xc9, 0x30, 0x3c, 
  0x42, 0x41, 0xb9, 0xbf, 0x1c, 0xfd, 0x15, 0x05, 0xc6, 0x14, 0x2c, 0xd6, 
  0xc2, 0xb3, 0x07, 0xd5, 0x32, 0x3b, 0x2d, 0x1a, 0x1b, 0xcc, 0xf2, 0xfe, 
  0x3f, 0x4e, 0x25, 0x09, 0xa0, 0x31, 0x1d, 0x2a, 0xfc, 0xe8, 0xf6, 0x00, 
  0x10, 0x03, 0xd3, 0xdd, 0xbf, 0x1f, 0xd9, 0x0e, 0x3d, 0xd2, 0x23, 0x30, 
  0xfb, 0xbf, 0x14, 0x17, 0xe0, 0x1f, 0x3f, 0x4b, 0x4f, 0xbe, 0xbc, 0xd7, 
  0x0f, 0x44, 0xc5, 0x14, 0xfa, 0xf2, 0x01, 0xe3, 0xe7, 0xbe, 0xd1, 0xbd, 
  0xd9, 0x47, 0xd0, 0x03, 0xe0, 0x09, 0x02, 0x2e, 0x46, 0xd8, 0x3e, 0x23, 
  0x16, 0x36, 0xcb, 0xef, 0xba, 0x12, 0xc4, 0x2b, 0xec, 0x08, 0xbd, 0xf1, 
  0x02, 0x3d, 0x22, 0xf8, 0xd5, 0xe6, 0x2f, 0x22, 0xb1, 0x05, 0x18, 0x4c, 
  0x18, 0xb4, 0x4f, 0xc4, 0x0a, 0xd7, 0x0c, 0xbf, 0x0a, 0x0d, 0x51, 0x46, 
  0x92, 0x8a, 0xd9, 0xbb, 0x96, 0xd5, 0xe2, 0xda, 0x01, 0x93, 0x37, 0x97, 
  0xf7, 0x28, 0xc0, 0xce, 0xc0, 0x83, 0xb0, 0xcb, 0x29, 0x45, 0xbb, 0xad, 
  0xb0, 0xdd, 0x42, 0xd1, 0x05, 0x13, 0xbb, 0x36, 0x8e, 0xce, 0xc2, 0x2b, 
  0xfc, 0xb4, 0x1f, 0xeb, 0x55, 0x40, 0x4b, 0x9b, 0x27, 0x87, 0xda, 0x29, 
  0xcc, 0x31, 0xc5, 0xe6, 0x4b, 0x2e, 0x00, 0xff, 0x3a, 0xa3, 0x44, 0xde, 
  0xc4, 0xee, 0xf1, 0xa1, 0x2f, 0x43, 0x15, 0xb8, 0x24, 0x0f, 0x1c, 0xd0, 
  0xd0, 0xc1, 0xcf, 0x4c, 0x47, 0x49, 0x99, 0x20, 0xd3, 0xc6, 0x3c, 0x28, 
  0x36, 0x50, 0xfc, 0xd4, 0x37, 0x27, 0x4f, 0xfc, 0x54, 0xce, 0x48, 0x5a, 
  0x9b, 0xf2, 0xcd, 0x1b, 0x91, 0xa3, 0x2e, 0xbc, 0xbc, 0x23, 0x1a, 0x4a, 
  0x52, 0x92, 0x2c, 0x12, 0xb2, 0xc4, 0xae, 0xf6, 0x03, 0x98, 0xf6, 0xdc, 
  0xa0, 0xd6, 0x10, 0xf3, 0x0d, 0xd5, 0xdb, 0x33, 0x4c, 0x86, 0xd5, 0x1d, 
  0xcd, 0xdd, 0xb8, 0x9a, 0xfe, 0xfb, 0x8d, 0xf5, 0x9b, 0x19, 0x90, 0x59, 
  0xa4, 0xdb, 0xd6, 0xb0, 0x3b, 0xc6, 0x27, 0x93, 0x82, 0x2c, 0x2b, 0x9a, 
  0xd4, 0xb4, 0xf5, 0x8c, 0x93, 0xa1, 0x1d, 0xfb, 0x57, 0xb8, 0x9c, 0x15, 
  0xf7, 0xd0, 0x90, 0x01, 0x51, 0xe9, 0xa6, 0xa3, 0x9a, 0x0b, 0x55, 0x10, 
  0x8d, 0x3e, 0x5b, 0xb6, 0x3b, 0xef, 0xa6, 0x8c, 0x4b, 0xf9, 0x10, 0x25, 
  0xd5, 0x3f, 0xc8, 0xc7, 0x2f, 0xdc, 0xab, 0x23, 0x8b, 0x2e, 0xa7, 0xe7, 
  0x47, 0x13, 0x04, 0x43, 0x95, 0x4a, 0x81, 0x2a, 0x57, 0x88, 0xd5, 0x1a, 
  0xba, 0xa4, 0x1f, 0xdf, 0xcf, 0xa6, 0x00, 0xeb, 0xd0, 0xda, 0x2e, 0x17, 
  0xb7, 0xc1, 0xb4, 0xe6, 0x84, 0x43, 0x16, 0x40, 0xe1, 0x8e, 0x2d, 0xd1, 
  0x13, 0x5a, 0x51, 0xcf, 0x3d, 0x03, 0x2c, 0xe5, 0xd9, 0x23, 0xa9, 0x8c, 
  0xad, 0xfa, 0xa5, 0xff, 0xd5, 0x09, 0xc7, 0xef, 0x1d, 0x3d, 0x2d, 0xe8, 
  0x2b, 0xb0, 0xd0, 0xd1, 0xcf, 0xcf, 0x49, 0x54, 0x38, 0x54, 0x4c, 0x92, 
  0xf0, 0x8f, 0xfc, 0x02, 0xec, 0x2b, 0x2d, 0x94, 0x4c, 0xa1, 0x87, 0x38, 
  0x3f, 0xbe, 0xa9, 0x54, 0xef, 0xef, 0x19, 0x14, 0x38, 0xc9, 0xe8, 0x38, 
  0x2a, 0xa7, 0x9c, 0x1e, 0x86, 0x06, 0x50, 0x0d, 0x86, 0x23, 0x4e, 0xda, 
  0x5d, 0xa7, 0x8c, 0x02, 0xea, 0xbc, 0x1d, 0xfa, 0xeb, 0x09, 0xb2, 0xae, 
  0x93, 0x1c, 0xaf, 0x38, 0x4e, 0xa2, 0xbb, 0x82, 0x2e, 0xd2, 0x10, 0x09, 
  0xd6, 0x2d, 0x35, 0xff, 0x55, 0x39, 0x52, 0x89, 0x45, 0x43, 0xc0, 0x9e, 
  0x81, 0xd9, 0x88, 0xf4, 0x57, 0xe4, 0xc8, 0xaa, 0x85, 0xfd, 0xff, 0x14, 
  0xc5, 0xd5, 0xf1, 0xa0, 0xb3, 0xd6, 0x51, 0x0c, 0xa3, 0x06, 0x31, 0x93, 
  0x49, 0x0a, 0xe0, 0x92, 0x30, 0x96, 0x30, 0x4e, 0x5a, 0x3c, 0xe2, 0xdd, 
  0xc6, 0xff, 0xc7, 0x26, 0xaf, 0xb8, 0xaf, 0x3a, 0x51, 0xb4, 0x44, 0x8c, 
  0x8e, 0x07, 0x3e, 0x46, 0xd3, 0xb4, 0x56, 0xca, 0xe6, 0x20, 0x1d, 0xfe, 
  0x4e, 0x55, 0xc1, 0xfa, 0xa9, 0x89, 0x2b, 0x92, 0xbd, 0x17, 0xc6, 0x8d, 
  0xa9, 0x3f, 0x05, 0xc2, 0x0b, 0xa0, 0x22, 0x11, 0xa9, 0x54, 0xcb, 0xa4, 
  0xcf, 0xcd, 0x98, 0x1a, 0x38, 0xe4, 0xf8, 0x5c, 0x22, 0x8a, 0x97, 0x4f, 
  0x0a, 0xcd, 0xa8, 0x4a, 0xf1, 0x50, 0xda, 0x13, 0x2f, 0xab, 0x4b, 0x15, 
  0x9d, 0x01, 0x2f, 0xd5, 0x2c, 0xaa, 0x87, 0xba, 0x45, 0x44, 0xd0, 0x4f, 
  0x38, 0xb7, 0xaa, 0x55, 0x4d, 0xfc, 0xbf, 0xa3, 0xe0, 0xa0, 0xb5, 0xd9, 
  0x91, 0xc5, 0xd8, 0x4a, 0x00, 0xa4, 0x47, 0xf4, 0xc8, 0x07, 0xd0, 0x99, 
  0x98, 0x28, 0xa8, 0xce, 0xf0, 0x4e, 0xd0, 0x42, 0x99, 0x3f, 0x39, 0x3b, 
  0xda, 0xdb, 0xea, 0xe0, 0x33, 0x24, 0xba, 0x00, 0xde, 0x1b, 0xf6, 0xef, 
  0xf7, 0x25, 0xdb, 0xde, 0xfc, 0x24, 0xfd, 0x05, 0xda, 0xe7, 0xf3, 0x48, 
  0xea, 0xd0, 0x23, 0x33, 0xc0, 0xf5, 0x45, 0x09, 0x3e, 0xf9, 0xdc, 0xea, 
  0x35, 0xf0, 0xe6, 0xc5, 0x15, 0x34, 0x2d, 0x29, 0xee, 0x10, 0xd2, 0x0e, 
  0x0b, 0x16, 0x44, 0x29, 0x19, 0x10, 0xc0, 0xbf, 0x38, 0x15, 0xc6, 0xd2, 
  0xc2, 0x47, 0x3c, 0x13, 0xd5, 0xc3, 0xf8, 0x18, 0xcf, 0x1c, 0x42, 0x32, 
  0xf7, 0x01, 0x0f, 0x06, 0x22, 0x34, 0xce, 0x53, 0x0c, 0x27, 0x31, 0xf1, 
  0xdb, 0x24, 0x0d, 0x1d, 0x25, 0x62, 0xfb, 0x2b, 0x5b, 0x3a, 0x2a, 0x4d, 
  0x57, 0xf0, 0x34, 0xf5, 0xe6, 0xf7, 0x14, 0x05, 0xfe, 0x04, 0x33, 0xe1, 
  0x0b, 0x29, 0x06, 0x6e, 0x55, 0xef, 0xc0, 0xf4, 0x4a, 0xf5, 0xec, 0x0a, 
  0x37, 0x51, 0xdc, 0x4e, 0x1e, 0xff, 0x44, 0x37, 0xda, 0xff, 0x0a, 0xed, 
  0xc5, 0xc6, 0x07, 0xca, 0x16, 0x23, 0xce, 0xd7, 0x0d, 0xed, 0xfd, 0xda, 
  0xcb, 0xf5, 0x48, 0x0a, 0x0b, 0xc2, 0xee, 0xe8, 0xe6, 0x4c, 0x29, 0x16, 
  0xee, 0x81, 0xfa, 0x52, 0xd8, 0x05, 0xe4, 0xbe, 0x9d, 0xf5, 0xd4, 0x0d, 
  0x15, 0xcc, 0xcf, 0xd0, 0xed, 0xa4, 0x30, 0xfc, 0xb4, 0x03, 0x27, 0x1d, 
  0x2d, 0x4b, 0x63, 0x0d, 0x0d, 0x47, 0x0b, 0xba, 0x4c, 0xe2, 0x1a, 0xff, 
  0x31, 0x35, 0x0e, 0xd1, 0xdd, 0x23, 0x39, 0x11, 0x12, 0xd3, 0x2b, 0x3a, 
  0x25, 0x39, 0xc9, 0x58, 0xe0, 0xc6, 0xc9, 0xcd, 0xce, 0xac, 0xbf, 0x57, 
  0x1f, 0x29, 0x1c, 0x22, 0xf2, 0x94, 0x07, 0xe1, 0xb6, 0xe9, 0xa1, 0x05, 
  0xeb, 0xc5, 0x02, 0x0b, 0xbd, 0xbd, 0x19, 0xe5, 0xc5, 0xd9, 0x0f, 0x25, 
  0xa1, 0xf8, 0x9c, 0xae, 0x33, 0xd3, 0xd2, 0xf8, 0x00, 0xe4, 0xf7, 0xc3, 
  0x33, 0xec, 0xfb, 0xe4, 0x28, 0x31, 0x1c, 0x20, 0x06, 0x17, 0xef, 0x4c, 
  0xd6, 0xbd, 0xe1, 0x06, 0xfb, 0xcc, 0xfe, 0xed, 0x1e, 0x0f, 0x0f, 0xba, 
  0x1e, 0xa7, 0x99, 0xec, 0xa3, 0xd4, 0xc9, 0xaa, 0xed, 0x06, 0xf4, 0xfc, 
  0xbc, 0x9b, 0xe4, 0xa1, 0xf5, 0xc5, 0xbc, 0x3c, 0xaf, 0x97, 0xb4, 0xfe, 
  0x15, 0x29, 0xd8, 0xd0, 0x13, 0xaa, 0xf3, 0xe7, 0xe8, 0x44, 0xd5, 0xb6, 
  0x38, 0x05, 0xcf, 0x37, 0xec, 0x4d, 0x22, 0x24, 0xcd, 0x43, 0xc6, 0x47, 
  0x32, 0xbe, 0xe4, 0x13, 0xd9, 0x33, 0xd0, 0x40, 0x44, 0x13, 0xdf, 0xf3, 
  0x05, 0x32, 0xed, 0x29, 0x56, 0xe7, 0xce, 0xf8, 0x25, 0x1f, 0xe7, 0x21, 
  0xac, 0x13, 0x12, 0x2b, 0xbd, 0xb1, 0x0b, 0xcb, 0x16, 0x2c, 0x01, 0xe4, 
  0xb3, 0xa5, 0xd4, 0x1f, 0xf2, 0xbc, 0xe2, 0x2f, 0xa7, 0xb7, 0xa2, 0x23, 
  0x1c, 0x33, 0xca, 0x3f, 0x15, 0x32, 0xee, 0x3a, 0x06, 0xe6, 0x0e, 0x10, 
  0x07, 0xc0, 0x15, 0x3a, 0x17, 0x05, 0x01, 0x07, 0xc3, 0xda, 0x43, 0xbb, 
  0x3c, 0x23, 0x32, 0x3a, 0x34, 0x18, 0xf3, 0x45, 0xca, 0xda, 0x1e, 0xf3, 
  0xe0, 0x36, 0xfc, 0xd5, 0xe8, 0x14, 0x0d, 0x38, 0xef, 0xf7, 0x2f, 0x08, 
  0xe4, 0xf4, 0x32, 0xc4, 0x09, 0xeb, 0xc3, 0xc4, 0x30, 0x4e, 0xca, 0xbc, 
  0xd8, 0xcf, 0xc8, 0x2c, 0xf3, 0xf0, 0xdd, 0x0b, 0xcf, 0x1d, 0xbc, 0xef, 
  0x0b, 0x17, 0x4a, 0x2a, 0xe4, 0xc9, 0x27, 0x45, 0xd8, 0x1f, 0xf2, 0xf4, 
  0x1f, 0x2e, 0x15, 0x2b, 0xd3, 0x35, 0x40, 0xd5, 0xe5, 0x24, 0x49, 0x1b, 
  0xee, 0x0e, 0x19, 0x1d, 0xd8, 0x34, 0xd7, 0xbe, 0x44, 0xdb, 0xf2, 0xdf, 
  0x30, 0x1c, 0x1c, 0x2b, 0x41, 0xf8, 0x09, 0x4a, 0x41, 0xbb, 0x31, 0xde, 
  0xf4, 0x47, 0xfc, 0x12, 0x03, 0x1d, 0x05, 0x23, 0xd7, 0x4a, 0xd6, 0x1a, 
  0x47, 0xbb, 0x2a, 0xf1, 0x4b, 0x1f, 0x49, 0xdd, 0x1b, 0x1f, 0x35, 0x2b, 
  0x2b, 0x65, 0xa5, 0xb5, 0x2d, 0x6b, 0xc1, 0x8a, 0x67, 0xed, 0xe5, 0x8a, 
  0xe9, 0x2b, 0x6d, 0x61, 0xe3, 0xe8, 0x14, 0xc9, 0x2f, 0xc9, 0x12, 0x31, 
  0xae, 0xc0, 0xb4, 0x0e, 0x19, 0x38, 0x1f, 0xe5, 0x63, 0xd4, 0xe5, 0xd0, 
  0x6c, 0x6c, 0x9a, 0x10, 0x3c, 0x65, 0x25, 0x21, 0x90, 0x3a, 0xb0, 0xca, 
  0x3a, 0x27, 0x61, 0x58, 0xe1, 0x48, 0x2b, 0x16, 0x8f, 0xef, 0xc1, 0x33, 
  0xfa, 0x58, 0xcf, 0xb2, 0x4e, 0x03, 0xa5, 0xcb, 0xdb, 0xca, 0x89, 0x14, 
  0x73, 0x85, 0x07, 0xd7, 0x9f, 0xac, 0x00, 0x40, 0xe7, 0xb6, 0x10, 0x0d, 
  0x53, 0x3b, 0xda, 0xc3, 0xc7, 0xb6, 0xa5, 0xcd, 0x93, 0xe3, 0xaf, 0xa1, 
  0xa4, 0x23, 0x81, 0x46, 0xff, 0x2b, 0x3c, 0x36, 0x31, 0xf4, 0x14, 0xa2, 
  0x46, 0x0d, 0xb4, 0xc8, 0x52, 0xcd, 0xb0, 0x9f, 0x5d, 0x44, 0x07, 0xa9, 
  0xc2, 0x30, 0xd2, 0xe4, 0xd6, 0xa7, 0x8b, 0xa9, 0x4c, 0x63, 0x5e, 0x8e, 
  0x66, 0x29, 0xe0, 0xd2, 0xd6, 0x08, 0xb2, 0xe2, 0xb8, 0xa5, 0x8e, 0x49, 
  0x1f, 0x50, 0xb9, 0xf2, 0xde, 0x26, 0x6c, 0x0f, 0xfe, 0xbd, 0xe7, 0xe7, 
  0xc7, 0xa1, 0xbb, 0x6b, 0xf8, 0xb5, 0x9e, 0xf5, 0xd6, 0x87, 0xdc, 0x4b, 
  0x2e, 0xf7, 0xbd, 0xde, 0xf4, 0xb1, 0x63, 0x81, 0x67, 0x47, 0x9c, 0x62, 
  0x59, 0xb6, 0xf5, 0x39, 0x25, 0x9b, 0x07, 0x48, 0xbb, 0xe5, 0xff, 0x01, 
  0xc6, 0x0e, 0xd0, 0x0c, 0x69, 0xdb, 0xdc, 0xe3, 0xfd, 0xfb, 0x20, 0xd2, 
  0x5d, 0x56, 0x27, 0x11, 0xbe, 0x3d, 0xba, 0x29, 0xfd, 0xeb, 0xa2, 0xb2, 
  0x36, 0x8c, 0x07, 0x39, 0xf1, 0x3a, 0xdf, 0x65, 0x3d, 0xd2, 0x34, 0xcd, 
  0xc1, 0x2a, 0x71, 0x8e, 0xd6, 0xf8, 0xad, 0x5d, 0xcb, 0xee, 0xbf, 0x8b, 
  0x44, 0x92, 0x05, 0xb8, 0xe1, 0xbf, 0x3f, 0xa7, 0x9e, 0xb7, 0x03, 0x4f, 
  0xc6, 0xaa, 0x08, 0xda, 0xd9, 0xcb, 0xd0, 0x44, 0x09, 0xa0, 0x50, 0xc9, 
  0xf7, 0xbf, 0xd3, 0x47, 0xd1, 0xb2, 0xff, 0xc7, 0x5e, 0xa2, 0x03, 0x17, 
  0x5d, 0x51, 0x55, 0x23, 0x8e, 0x95, 0xae, 0x6f, 0x09, 0x11, 0x8d, 0xed, 
  0x29, 0xe1, 0x8c, 0x12, 0x4c, 0x97, 0x3f, 0x50, 0xa8, 0x2a, 0x67, 0xae, 
  0xd3, 0xfe, 0x53, 0x3c, 0xbe, 0x1a, 0x1e, 0x55, 0x5a, 0xe4, 0xf7, 0xc9, 
  0x58, 0xd8, 0x2d, 0xfb, 0xa2, 0x18, 0x2b, 0xe7, 0x98, 0x4c, 0x99, 0x57, 
  0xb3, 0x32, 0xef, 0x9c, 0x1a, 0xca, 0x4e, 0xed, 0xb4, 0x1a, 0xdb, 0x31, 
  0x4e, 0x2c, 0xb2, 0x8e, 0x5c, 0x1a, 0xde, 0x33, 0xb8, 0x0b, 0x2d, 0x00, 
  0xdb, 0x6a, 0x6c, 0x34, 0x70, 0xf8, 0xd0, 0xd9, 0x55, 0x27, 0x70, 0x41, 
  0x68, 0x21, 0xfb, 0x36, 0x90, 0x57, 0x97, 0x0f, 0x72, 0xcc, 0xcb, 0xdb, 
  0xdc, 0xc6, 0xc6, 0x0a, 0x09, 0xfb, 0xd5, 0xc7, 0x34, 0x92, 0x2f, 0x43, 
  0x90, 0xa4, 0x52, 0x2a, 0x47, 0x13, 0x65, 0xfd, 0xa7, 0x18, 0x62, 0x20, 
  0x4f, 0xbf, 0x5f, 0x1e, 0xaa, 0x6b, 0xd6, 0xf8, 0xa4, 0x3c, 0xa0, 0xe6, 
  0x37, 0x99, 0x93, 0x65, 0xb0, 0x25, 0xde, 0xf6, 0xd2, 0xbd, 0x13, 0x3b, 
  0xc0, 0xb9, 0x31, 0x07, 0xd4, 0x47, 0xb8, 0x2b, 0x16, 0xe0, 0xbc, 0x65, 
  0xe9, 0x0b, 0x50, 0x36, 0x31, 0xb1, 0x6d, 0x9d, 0xa1, 0xd4, 0x4f, 0x1a, 
  0xa3, 0x23, 0x3f, 0x5e, 0xfa, 0x9e, 0x12, 0x19, 0xe8, 0x91, 0xae, 0x0a, 
  0xd3, 0xdb, 0xd3, 0x68, 0xed, 0x43, 0x9b, 0x3a, 0xdc, 0xfe, 0x94, 0x4a, 
  0xd9, 0xec, 0xb6, 0x3f, 0xe1, 0x33, 0xe9, 0x1f, 0x16, 0x8d, 0x06, 0xcb, 
  0x4a, 0x1a, 0xa0, 0xeb, 0x16, 0xc3, 0x4d, 0x8a, 0xeb, 0xb7, 0xea, 0xca, 
  0x83, 0x10, 0x31, 0xa6, 0x3f, 0xf2, 0x4f, 0x09, 0xd7, 0xc4, 0x69, 0x59, 
  0x9e, 0x5b, 0x6d, 0x4b, 0x44, 0x4a, 0x0e, 0x3e, 0xea, 0x66, 0xb7, 0xab, 
  0xd4, 0xd6, 0x98, 0xf1, 0x9b, 0xb6, 0xbf, 0xc5, 0xa1, 0xa2, 0xa2, 0x40, 
  0x6a, 0x51, 0xcd, 0x9a, 0x7d, 0x04, 0xd3, 0xcd, 0xa3, 0x8e, 0xc5, 0x8f, 
  0xb7, 0x0c, 0xb0, 0x71, 0x40, 0xbb, 0x73, 0x5e, 0x7d, 0x6e, 0x14, 0xd8, 
  0x7e, 0x79, 0xd9, 0xd6, 0xb0, 0x41, 0x8b, 0xf7, 0x92, 0x01, 0x83, 0xe1, 
  0x11, 0xa0, 0xca, 0x13, 0x63, 0x91, 0xc7, 0x72, 0x20, 0xde, 0x27, 0xad, 
  0x83, 0x16, 0xbc, 0x30, 0xed, 0x27, 0xd1, 0x55, 0xfa, 0x16, 0x81, 0x2f, 
  0xa9, 0x55, 0x7b, 0x90, 0x8c, 0x9d, 0x9f, 0x9e, 0x50, 0x45, 0xeb, 0xbf, 
  0x60, 0x85, 0x1b, 0x93, 0x47, 0x32, 0x21, 0xfe, 0x1d, 0xfd, 0xe8, 0x34, 
  0x39, 0xad, 0x18, 0xe8, 0xdf, 0x19, 0x5c, 0xd1, 0xe3, 0xea, 0xd2, 0x1e, 
  0x97, 0x10, 0x4c, 0xde, 0x5c, 0x57, 0x3b, 0x6c, 0x5f, 0x1c, 0x89, 0xe1, 
  0xba, 0x57, 0x87, 0x58, 0x8a, 0xbd, 0x86, 0xdf, 0x2a, 0xee, 0x8f, 0x84, 
  0xd2, 0x94, 0x44, 0x47, 0x5e, 0xa5, 0x6f, 0xa4, 0x63, 0x7e, 0x38, 0xb5, 
  0x15, 0x02, 0x19, 0xc3, 0x49, 0x53, 0xbf, 0x9b, 0xa0, 0xf9, 0x9e, 0xe9, 
  0x77, 0xa4, 0x63, 0x9e, 0xb7, 0x83, 0x3f, 0x7a, 0xde, 0x40, 0x89, 0xe3, 
  0x6c, 0x59, 0xe4, 0x75, 0xfb, 0x50, 0x2c, 0x46, 0xc6, 0xba, 0x88, 0xe9, 
  0x22, 0x05, 0xa7, 0xa4, 0xb1, 0xea, 0xf7, 0x6b, 0xe8, 0xe8, 0x51, 0x2c, 
  0x34, 0x26, 0x8a, 0xb6, 0x16, 0x0b, 0x41, 0xe9, 0x40, 0x98, 0x8f, 0xb2, 
  0xb1, 0x97, 0xf2, 0xc9, 0x65, 0x45, 0x03, 0x0b, 0xd4, 0x42, 0x30, 0x7e, 
  0xa1, 0x34, 0x55, 0x16, 0x4d, 0xe1, 0x3c, 0x21, 0x3c, 0x7c, 0x70, 0xb4, 
  0x18, 0x56, 0x41, 0x07, 0x1b, 0x56, 0x83, 0x54, 0x7f, 0xea, 0xd5, 0xb1, 
  0x83, 0x9d, 0x10, 0x8b, 0x8a, 0xe6, 0x7d, 0x9e, 0xd3, 0xf4, 0xe4, 0x88, 
  0xf7, 0x30, 0x52, 0xf2, 0x07, 0xc6, 0xd0, 0xc6, 0x75, 0xf2, 0x6e, 0x1e, 
  0xa3, 0x1d, 0xb0, 0x3d, 0x3f, 0xbf, 0xcd, 0xf5, 0xe3, 0x0d, 0x63, 0xc1, 
  0x88, 0xe9, 0x36, 0x8e, 0xda, 0xf1, 0x6c, 0x68, 0xfc, 0x2c, 0x32, 0x51, 
  0x20, 0x04, 0x0b, 0x6c, 0x45, 0x22, 0x4a, 0x4a, 0x38, 0x81, 0xe2, 0xa1, 
  0x46, 0x2c, 0xe7, 0xad, 0xd2, 0x88, 0xfd, 0x2f, 0x51, 0xd9, 0x87, 0x8f, 
  0x74, 0xa0, 0x14, 0xbe, 0x21, 0xd2, 0xa1, 0x7d, 0x0e, 0x0b, 0xd2, 0x4a, 
  0xde, 0xec, 0x3b, 0xc3, 0xc8, 0x12, 0x4f, 0x97, 0x7a, 0x08, 0x30, 0x73, 
  0xe7, 0x4f, 0xc3, 0x49, 0xf8, 0x54, 0xcb, 0x2f, 0x75, 0x18, 0x86, 0xf0, 
  0xf8, 0xb0, 0xab, 0x8d, 0xd8, 0xe4, 0xd9, 0x94, 0xe2, 0xc7, 0x34, 0x08, 
  0x3f, 0xeb, 0x7d, 0x87, 0xd6, 0x69, 0xdc, 0x0d, 0xe6, 0x6e, 0x33, 0x4e, 
  0xa7, 0x84, 0x82, 0xbc, 0xbf, 0x74, 0x8e, 0x33, 0x77, 0x59, 0x54, 0xf2, 
  0xd2, 0x62, 0xd1, 0x69, 0xd4, 0xef, 0x17, 0x30, 0x7f, 0x2f, 0x8f, 0x68, 
  0x8b, 0xcd, 0xdb, 0x57, 0x26, 0xbe, 0x74, 0xc3, 0x43, 0x1e, 0x5d, 0xba, 
  0xb5, 0x6a, 0xa8, 0xd8, 0x9c, 0x75, 0xb0, 0xc1, 0x71, 0x0c, 0x6e, 0x6c, 
  0x01, 0xa5, 0xdf, 0x2e, 0x1c, 0x49, 0x73, 0x9b, 0xec, 0x94, 0x2a, 0xac, 
  0x99, 0x4f, 0x67, 0x27, 0x6d, 0x32, 0xd1, 0xc8, 0x36, 0xbe, 0xd8, 0x00, 
  0xb4, 0x57, 0xfe, 0xf0, 0x44, 0x10, 0xc5, 0xe9, 0x95, 0x81, 0x87, 0x7a, 
  0x18, 0xee, 0xf0, 0x7e, 0xfe, 0x88, 0xfb, 0xd8, 0x85, 0x66, 0x89, 0x50, 
  0x69, 0x2c, 0x88, 0xfd, 0xc3, 0x5b, 0x0f, 0x47, 0x90, 0x98, 0x23, 0x0e, 
  0x2c, 0xd8, 0x48, 0x64, 0xf4, 0x86, 0x94, 0x9f, 0xc4, 0xa9, 0xb5, 0x91, 
  0xe0, 0x54, 0x9a, 0x86, 0x21, 0x9a, 0x62, 0xe8, 0x71, 0x26, 0xb9, 0x21, 
  0xc7, 0x3e, 0xf3, 0x4f, 0xf1, 0x05, 0x27, 0x27, 0xe2, 0xec, 0xec, 0x1c, 
  0x1f, 0x26, 0xd2, 0x1a, 0x09, 0x08, 0xf0, 0x0a, 0xf6, 0x1c, 0xf8, 0x20, 
  0x1b, 0x07, 0x29, 0x1d, 0xe0, 0xf5, 0xf1, 0x21, 0xec, 0x1e, 0xd2, 0xda, 
  0x0f, 0x11, 0x27, 0xf9, 0x1e, 0xd4, 0xf4, 0x0e, 0xf9, 0xdc, 0xd1, 0x19, 
  0xf3, 0xd1, 0xfd, 0x27, 0xdb, 0xeb, 0xe3, 0x11, 0xdc, 0x0a, 0x0b, 0x25, 
  0x17, 0x10, 0xf1, 0xe9, 0x22, 0x1f, 0x00, 0xf2, 0xf6, 0xfe, 0xe0, 0xfe, 
  0xed, 0xe2, 0x08, 0x1c, 0xe0, 0x13, 0xf2, 0xe7, 0xdb, 0x06, 0xde, 0x1c, 
  0x04, 0x0a, 0x02, 0xdd, 0xfc, 0xca, 0xdc, 0x17, 0x08, 0xed, 0xcb, 0xcf, 
  0x19, 0xdd, 0x1b, 0x1c, 0x1a, 0x00, 0xc3, 0xf9, 0xc8, 0xf7, 0x03, 0xee, 
  0xed, 0xd1, 0x15, 0xf5, 0xea, 0xc6, 0x18, 0xfd, 0xd0, 0x0d, 0xe6, 0x21, 
  0xeb, 0xd7, 0x12, 0xec, 0x12, 0xff, 0x1b, 0x04, 0xf6, 0x09, 0x0e, 0xd4, 
  0x15, 0x16, 0x23, 0xf6, 0xef, 0x26, 0x19, 0xf7, 0xed, 0x27, 0x1f, 0xef, 
  0x0c, 0x1b, 0x1f, 0xda, 0x3b, 0x1d, 0xef, 0xfd, 0xd3, 0xdd, 0xe1, 0x2d, 
  0x25, 0x13, 0x13, 0xe4, 0x15, 0x0a, 0xe2, 0x23, 0x4d, 0x3d, 0xff, 0xc8, 
  0x0c, 0x15, 0x2a, 0x00, 0x08, 0x2a, 0x02, 0x0f, 0x29, 0x1e, 0x0e, 0x00, 
  0xd7, 0x08, 0x1c, 0xdd, 0xf2, 0xf0, 0xdc, 0xed, 0xf8, 0x17, 0xeb, 0x0c, 
  0xe6, 0xeb, 0xf6, 0xf8, 0xe5, 0x08, 0x12, 0x23, 0xeb, 0xfd, 0x12, 0x22, 
  0x1b, 0x1f, 0xf9, 0x11, 0x08, 0xf0, 0xd7, 0xdb, 0xd5, 0x2a, 0x01, 0x30, 
  0xdf, 0xe1, 0x26, 0x03, 0x30, 0x05, 0xfe, 0xed, 0x33, 0xf3, 0xec, 0x3b, 
  0x7f, 0x22, 0x19, 0x4c, 0x0f, 0xf4, 0x11, 0x16, 0x6e, 0xec, 0xf5, 0xde, 
  0xe2, 0x23, 0x21, 0xe7, 0x20, 0xeb, 0xed, 0xec, 0x09, 0x1e, 0xe7, 0xee, 
  0xf6, 0x0c, 0x15, 0x08, 0x0b, 0x05, 0x04, 0x24, 0xe0, 0xe0, 0xdb, 0xd5, 
  0xff, 0x29, 0x16, 0x0a, 0x1a, 0xce, 0x06, 0x2c, 0x0c, 0xea, 0x29, 0x27, 
  0xe4, 0x07, 0x25, 0xfa, 0x25, 0xe9, 0xe8, 0x0b, 0x77, 0x3b, 0x1c, 0x4f, 
  0x39, 0x0b, 0xfc, 0x02, 0x77, 0x0f, 0x0e, 0x3e, 0x11, 0x43, 0x38, 0xf7, 
  0x2c, 0xfb, 0xde, 0x10, 0x1d, 0x03, 0xfd, 0xe8, 0x12, 0xf2, 0xe5, 0xd3, 
  0xe7, 0xdf, 0x0f, 0x0f, 0xe1, 0x03, 0xf1, 0x23, 0xff, 0xe8, 0x0a, 0x1e, 
  0x16, 0xfb, 0xe3, 0xed, 0xde, 0xd5, 0xd1, 0x09, 0x02, 0xf0, 0x09, 0xeb, 
  0x1a, 0x02, 0xee, 0xd5, 0x03, 0xea, 0x13, 0x37, 0xf6, 0x0b, 0x16, 0xeb, 
  0x47, 0x2b, 0xf2, 0x22, 0x3f, 0xf7, 0xf9, 0x14, 0x63, 0xfa, 0x39, 0x32, 
  0xfb, 0xf4, 0xef, 0x31, 0x1d, 0xe4, 0xf3, 0x1d, 0x08, 0x01, 0x34, 0x2f, 
  0xff, 0xdb, 0xfa, 0x16, 0xd7, 0xec, 0xf4, 0x1c, 0x01, 0xdb, 0xd0, 0x15, 
  0xf9, 0xe3, 0xfb, 0xd3, 0xe2, 0xe8, 0x11, 0xe4, 0x0b, 0xd2, 0xfb, 0x12, 
  0xf5, 0xe3, 0x21, 0xdf, 0xf6, 0xd0, 0x0f, 0x25, 0x21, 0x13, 0xfa, 0x02, 
  0xfe, 0x1a, 0xf3, 0x28, 0xe8, 0xf0, 0x28, 0x02, 0x13, 0xfc, 0xfe, 0x0e, 
  0xfd, 0xf5, 0x25, 0xd2, 0xfb, 0x27, 0x22, 0xe4, 0x21, 0x1d, 0x20, 0xe8, 
  0xfe, 0x0e, 0x27, 0x0c, 0x18, 0xdb, 0xdb, 0xd2, 0xd5, 0xf5, 0x1d, 0xd0, 
  0x14, 0x21, 0x16, 0xd7, 0xf0, 0xeb, 0xf1, 0xf7, 0xfe, 0xf3, 0xdf, 0xd5, 
  0x08, 0xf5, 0xe6, 0x13, 0x0d, 0x1c, 0xe0, 0xe7, 0xdc, 0xf5, 0xea, 0x23, 
  0xe9, 0xd6, 0xdf, 0xe4, 0x03, 0xe7, 0xe9, 0x0a, 0x18, 0x09, 0xd3, 0x1e, 
  0x06, 0xfd, 0xe5, 0x23, 0xe3, 0xde, 0x18, 0x17, 0xe5, 0x1f, 0x1a, 0xe8, 
  0xf5, 0xd2, 0x25, 0x11, 0xe8, 0x07, 0x29, 0x0f, 0xe8, 0xe0, 0x02, 0x01, 
  0x22, 0x25, 0x23, 0xfc, 0xd8, 0x14, 0x03, 0x22, 0xf9, 0x02, 0x14, 0xda, 
  0xbc, 0xfd, 0x00, 0xdb, 0x38, 0x4f, 0x90, 0xfa, 0x2f, 0x2d, 0xdc, 0x2c, 
  0x03, 0xa0, 0x24, 0x0b, 0xc3, 0xc1, 0xdc, 0xef, 0x1c, 0x37, 0x35, 0xa4, 
  0xdb, 0x5b, 0x42, 0x63, 0xbf, 0x68, 0xd6, 0x58, 0x34, 0x17, 0x07, 0x56, 
  0xf9, 0x83, 0x99, 0xfc, 0xae, 0x97, 0x58, 0x26, 0xd0, 0xc4, 0x16, 0xab, 
  0xcd, 0x08, 0xb6, 0x7d, 0xe3, 0xb7, 0x02, 0xaa, 0xa4, 0xe5, 0xe2, 0x9b, 
  0xf1, 0x21, 0x9f, 0x6a, 0x1a, 0xdb, 0xef, 0xcf, 0x38, 0x62, 0xe8, 0xb6, 
  0x48, 0x3c, 0x36, 0x45, 0x3c, 0xf8, 0xc8, 0x70, 0xd1, 0xe0, 0x05, 0xfd, 
  0x18, 0x87, 0x3d, 0x3c, 0x72, 0xee, 0x6e, 0x16, 0x3e, 0x53, 0xa7, 0xd1, 
  0x97, 0x82, 0x50, 0xad, 0xb9, 0x55, 0x6b, 0xb2, 0xc4, 0x95, 0x16, 0xf8, 
  0xaf, 0x1d, 0x4f, 0x4d, 0xba, 0x5d, 0x8c, 0xd5, 0xde, 0x55, 0xa3, 0xd2, 
  0x79, 0x1a, 0xc1, 0xc3, 0x70, 0xc5, 0xf1, 0xb8, 0xfb, 0x4d, 0xec, 0x6e, 
  0xb0, 0x74, 0x15, 0xcb, 0xc6, 0x9d, 0xd7, 0x30, 0xee, 0x92, 0x2e, 0x78, 
  0xbc, 0x9a, 0xab, 0xe1, 0x52, 0xb8, 0xb2, 0x49, 0x28, 0x4a, 0x30, 0x10, 
  0x81, 0x89, 0xf2, 0x65, 0xb8, 0xb0, 0x4b, 0x1f, 0xa8, 0x03, 0xda, 0x16, 
  0xf3, 0x6c, 0x98, 0x59, 0x24, 0xa5, 0x2e, 0x4e, 0x37, 0x49, 0x13, 0xcb, 
  0xf2, 0x42, 0x46, 0x5b, 0xa1, 0xc1, 0xb3, 0x86, 0xcd, 0x20, 0x17, 0x67, 
  0x76, 0x2e, 0x94, 0x2e, 0x8c, 0xba, 0x17, 0xc3, 0x6e, 0x54, 0xd0, 0xfa, 
  0x12, 0xad, 0x55, 0xed, 0x8b, 0x46, 0x6b, 0xe8, 0x4b, 0xfb, 0x53, 0xf0, 
  0xd0, 0x94, 0x04, 0x4c, 0x1f, 0x7a, 0x9b, 0x9d, 0x21, 0xa6, 0xc1, 0x4a, 
  0x55, 0x93, 0xe0, 0x17, 0xa7, 0x1c, 0xc3, 0x45, 0x14, 0x9f, 0x69, 0xd4, 
  0x5d, 0x06, 0x51, 0xde, 0x55, 0x0f, 0x93, 0xa1, 0x4a, 0xda, 0x18, 0x54, 
  0xe5, 0x7b, 0x09, 0x02, 0xac, 0xcf, 0xe0, 0x27, 0x9b, 0x9c, 0x94, 0x15, 
  0x06, 0x5f, 0xed, 0x42, 0xb1, 0x6a, 0x8d, 0x28, 0x49, 0x1e, 0xd7, 0x73, 
  0xc6, 0x28, 0x95, 0x98, 0x01, 0x42, 0x9e, 0x6a, 0x95, 0x62, 0x51, 0x2a, 
  0x7f, 0xa3, 0x0b, 0x9d, 0xe9, 0xbb, 0x8b, 0x27, 0x3c, 0x1b, 0x13, 0x5f, 
  0x14, 0x37, 0x7d, 0x11, 0x05, 0x8f, 0x89, 0xc1, 0x5e, 0x61, 0x69, 0x61, 
  0x1e, 0xcb, 0xc2, 0xca, 0x65, 0x34, 0xf1, 0x0c, 0x16, 0xbf, 0x5a, 0xb1, 
  0x8f, 0x9a, 0xa1, 0xcf, 0xb7, 0x02, 0x3f, 0xc5, 0x96, 0xba, 0x51, 0x50, 
  0x7a, 0xc5, 0x87, 0x62, 0xca, 0x24, 0x07, 0x4a, 0x8f, 0xf0, 0xfe, 0xfd, 
  0xa0, 0xbb, 0xa6, 0x7e, 0x6b, 0x9e, 0xfd, 0x4e, 0xf4, 0x5b, 0x3f, 0xd4, 
  0x74, 0xff, 0x1b, 0x3d, 0x6c, 0x22, 0x5a, 0xe9, 0xd9, 0x2e, 0x03, 0x12, 
  0xe3, 0xbf, 0x22, 0x67, 0xfc, 0x4c, 0xec, 0xd1, 0x22, 0x24, 0xe2, 0x8b, 
  0x5f, 0x55, 0xf3, 0x53, 0x0d, 0x0a, 0x00, 0xb2, 0xc3, 0xd0, 0x21, 0x18, 
  0xd8, 0xbf, 0xec, 0x15, 0xfd, 0xd1, 0xe6, 0x00, 0x37, 0xde, 0x87, 0xeb, 
  0x32, 0x15, 0x45, 0x26, 0x17, 0x95, 0x78, 0x1a, 0x41, 0x6e, 0x88, 0x1c, 
  0x51, 0x67, 0xe5, 0x7d, 0xa8, 0xd3, 0xfd, 0x69, 0xcc, 0xe8, 0x57, 0xa4, 
  0xc2, 0xd3, 0x2b, 0xda, 0x3f, 0xc4, 0xb1, 0x0f, 0x17, 0xb3, 0xeb, 0x0c, 
  0x8a, 0xd5, 0xb5, 0xdf, 0x56, 0xb3, 0xc6, 0x02, 0x9b, 0xfd, 0x59, 0x89, 
  0xa7, 0x95, 0xb5, 0x4e, 0xc0, 0xf9, 0x83, 0x5f, 0xab, 0x15, 0x53, 0xf4, 
  0x60, 0xe7, 0x3b, 0xcb, 0x99, 0x1f, 0x77, 0x96, 0x51, 0x91, 0x73, 0x70, 
  0xdb, 0xe0, 0x32, 0x93, 0x8f, 0xd2, 0xb4, 0x7d, 0xfe, 0xaa, 0x15, 0xfe, 
  0x9c, 0xb5, 0xa1, 0x7c, 0x2b, 0xfe, 0x63, 0x9b, 0xba, 0x1a, 0xf9, 0x27, 
  0x1b, 0x6b, 0x94, 0xdf, 0x40, 0x99, 0xd3, 0xdd, 0x0f, 0xd0, 0xfc, 0xf8, 
  0x51, 0xe7, 0xc3, 0xe7, 0x5b, 0xe3, 0xfd, 0x9e, 0x34, 0xda, 0x2c, 0x5f, 
  0x4f, 0x5b, 0x91, 0x39, 0xd4, 0xa0, 0xb1, 0xb9, 0xc4, 0xe3, 0x10, 0xc8, 
  0x21, 0x4e, 0x56, 0x23, 0xb2, 0xc4, 0xb2, 0xbc, 0x85, 0x3b, 0xd9, 0x0b, 
  0x88, 0x6e, 0xa6, 0x41, 0x98, 0x68, 0x6c, 0x46, 0xe5, 0x90, 0x6e, 0xde, 
  0x4e, 0x53, 0x50, 0x18, 0x25, 0x96, 0x43, 0xf4, 0xdf, 0xbf, 0xe7, 0x94, 
  0x72, 0x3e, 0xaf, 0x60, 0x32, 0xf7, 0x2f, 0xbe, 0xf9, 0x4b, 0x49, 0x2e, 
  0x26, 0x95, 0x3c, 0x27, 0xc5, 0x1a, 0x3a, 0x92, 0x5d, 0xc6, 0xec, 0x62, 
  0x63, 0x87, 0x21, 0x9f, 0xab, 0x87, 0xcf, 0x8a, 0x0f, 0x10, 0xcb, 0xfd, 
  0x34, 0xd6, 0x99, 0x05, 0x71, 0xc1, 0x3c, 0x16, 0x9a, 0x95, 0x40, 0xe1, 
  0x36, 0xcf, 0x21, 0x98, 0x62, 0xe1, 0xb8, 0xd5, 0xe2, 0xeb, 0x2b, 0x8c, 
  0x50, 0x51, 0xea, 0x19, 0xb3, 0xc2, 0x1f, 0x2a, 0x8b, 0x36, 0x9b, 0xe5, 
  0x44, 0xfe, 0x11, 0xbf, 0x29, 0x50, 0x6e, 0x11, 0x41, 0x14, 0x81, 0x8c, 
  0x05, 0x22, 0x27, 0xda, 0x29, 0x2e, 0xd8, 0x68, 0x4b, 0x35, 0x66, 0xd6, 
  0x06, 0xd0, 0x28, 0x04, 0xaf, 0xed, 0xa6, 0x3c, 0x8d, 0xbb, 0x4c, 0x93, 
  0xce, 0xff, 0xb8, 0xd3, 0xda, 0x61, 0x0c, 0x01, 0xbd, 0x11, 0xcc, 0xf2, 
  0xce, 0xbb, 0xe8, 0xf6, 0x97, 0x49, 0x49, 0xc5, 0xc5, 0x87, 0x2e, 0x6d, 
  0x26, 0x50, 0x60, 0xe1, 0x37, 0xe4, 0xc4, 0x5b, 0xa6, 0xe5, 0x5b, 0xfe, 
  0x25, 0x87, 0x4d, 0xf7, 0x49, 0xd1, 0xc3, 0xb1, 0x62, 0x19, 0xc3, 0xb6, 
  0xc6, 0x62, 0x84, 0x0f, 0x60, 0x09, 0xd2, 0xf6, 0x46, 0x58, 0x6a, 0xff, 
  0x5e, 0xfa, 0x85, 0xd0, 0xba, 0xa5, 0x41, 0xfe, 0x52, 0x6a, 0x86, 0xff, 
  0x88, 0x38, 0xc6, 0x94, 0x02, 0xca, 0x2b, 0x48, 0xf1, 0x39, 0xa1, 0x70, 
  0x5b, 0x2c, 0xa7, 0x5e, 0x60, 0x6d, 0xdb, 0xe6, 0x39, 0xa5, 0x4a, 0x8f, 
  0xec, 0x00, 0x5a, 0x35, 0x44, 0x16, 0x5d, 0xa9, 0x4f, 0xbe, 0xea, 0x44, 
  0x97, 0x6e, 0xe1, 0x4c, 0x86, 0x4a, 0x96, 0x4c, 0x32, 0xa9, 0x12, 0x61, 
  0x89, 0x8f, 0x46, 0xd4, 0x8c, 0xad, 0xcd, 0xa4, 0x2b, 0x64, 0x28, 0x9a, 
  0x90, 0x2f, 0x81, 0xb4, 0xaf, 0xa5, 0xe4, 0x16, 0xb2, 0x06, 0xc2, 0xe9, 
  0xbc, 0x98, 0x27, 0x11, 0xdd, 0x5d, 0x6e, 0xff, 0x1f, 0xed, 0xd1, 0x08, 
  0xb7, 0x37, 0xc8, 0xe5, 0x3e, 0x61, 0x00, 0x9c, 0xa2, 0x6c, 0xd5, 0x5f, 
  0x34, 0x8f, 0xa1, 0xfd, 0x51, 0x67, 0x83, 0x31, 0x0d, 0xf3, 0xfa, 0xf5, 
  0x2d, 0x33, 0xd8, 0xbe, 0x13, 0x72, 0x2c, 0x5a, 0xb9, 0x38, 0xd2, 0x02, 
  0xc9, 0x53, 0x32, 0xb1, 0x2a, 0x6b, 0x43, 0x01, 0xbe, 0xc8, 0xb4, 0xb0, 
  0xac, 0x06, 0x1e, 0x6f, 0xab, 0x17, 0x9f, 0x1a, 0x43, 0xf6, 0x40, 0xee, 
  0x91, 0x89, 0x87, 0x8e, 0xd5, 0xa7, 0xba, 0x45, 0x3d, 0x5f, 0xc8, 0x37, 
  0x98, 0x3d, 0x88, 0x1e, 0x6e, 0xbf, 0xa9, 0x27, 0x4a, 0x4a, 0x44, 0xb2, 
  0x70, 0x49, 0x01, 0xec, 0x91, 0x6a, 0xa0, 0xf7, 0x2b, 0x67, 0xac, 0x1a, 
  0xb5, 0x4b, 0x53, 0xd4, 0x68, 0xf6, 0xb6, 0x47, 0x1f, 0x40, 0xc9, 0xa8, 
  0x52, 0x58, 0xc2, 0xcb, 0x23, 0xbf, 0xc1, 0xa2, 0x43, 0xb1, 0x29, 0xc3, 
  0xac, 0xd5, 0xb9, 0x98, 0xfd, 0x4c, 0x67, 0x29, 0xf7, 0xb6, 0x9b, 0x13, 
  0x19, 0xf7, 0x1e, 0xdf, 0x03, 0xb9, 0x52, 0x57, 0xb3, 0xf9, 0xe6, 0xc5, 
  0x78, 0x61, 0xf5, 0x44, 0x1d, 0x13, 0xf3, 0xfb, 0x38, 0xae, 0x8e, 0xd6, 
  0x3b, 0x92, 0x1c, 0xaf, 0x2d, 0xf6, 0xcd, 0x9d, 0xd8, 0x53, 0xdd, 0xce, 
  0xc3, 0x9b, 0xa0, 0xa6, 0x6c, 0x96, 0x28, 0x3d, 0x08, 0xee, 0x5c, 0x8c, 
  0x84, 0x45, 0x4f, 0x90, 0x12, 0x1a, 0x8f, 0x3f, 0x57, 0x3d, 0x4b, 0xbd, 
  0x55, 0x95, 0x34, 0xa9, 0x92, 0xa3, 0x5e, 0xf8, 0x99, 0xdf, 0xfd, 0xce, 
  0xec, 0x82, 0xab, 0x86, 0x14, 0xb5, 0x0f, 0x03, 0x61, 0x03, 0x84, 0x03, 
  0xbb, 0x26, 0x2d, 0x0b, 0x88, 0xc8, 0xfd, 0xb8, 0x5b, 0x5f, 0xa9, 0x76, 
  0x35, 0x2a, 0x90, 0x77, 0xfe, 0x4d, 0xf7, 0xb5, 0xdd, 0x0e, 0xd6, 0x1d, 
  0x91, 0xfa, 0xba, 0x49, 0x68, 0x6c, 0xad, 0xcf, 0x2a, 0xd2, 0x07, 0xf2, 
  0x0f, 0x06, 0xd6, 0xf7, 0x42, 0x96, 0xe9, 0xb4, 0x92, 0x01, 0x77, 0x11, 
  0xec, 0xb9, 0xed, 0xf4, 0x2d, 0x43, 0x26, 0xf5, 0x33, 0xf9, 0xf4, 0x31, 
  0x71, 0x73, 0xae, 0xa3, 0xa5, 0xa6, 0xfd, 0x1f, 0x21, 0xa0, 0x24, 0x57, 
  0xbf, 0x54, 0x3e, 0x5d, 0x10, 0x11, 0x94, 0x6a, 0x8f, 0xc6, 0xc0, 0x90, 
  0x42, 0x9d, 0x33, 0x96, 0x60, 0x1d, 0xe8, 0x3b, 0xfa, 0xe5, 0x6a, 0xe7, 
  0xda, 0xae, 0xaa, 0x6d, 0x62, 0xce, 0xbf, 0x02, 0x5b, 0x99, 0xf9, 0x09, 
  0xa3, 0xae, 0xa9, 0x58, 0x8e, 0x6d, 0x2b, 0x37, 0xd2, 0xcd, 0x74, 0x2c, 
  0xcc, 0xc4, 0x72, 0x39, 0x36, 0x08, 0xc3, 0xb0, 0x1b, 0x1d, 0xb6, 0xce, 
  0x06, 0x50, 0x0f, 0x62, 0x69, 0xa5, 0xff, 0x0a, 0x69, 0x38, 0x9f, 0x2d, 
  0x83, 0xa8, 0x3e, 0xab, 0xff, 0x5f, 0x26, 0x54, 0x96, 0xfd, 0x45, 0xb1, 
  0x23, 0xdf, 0x0c, 0xaf, 0x30, 0x52, 0xc0, 0x93, 0x9e, 0x03, 0xf2, 0xd9, 
  0x92, 0x46, 0x61, 0x51, 0x43, 0xe3, 0x8c, 0x5d, 0x81, 0xf5, 0x05, 0x28, 
  0xfc, 0xfd, 0xda, 0x87, 0x1c, 0xd8, 0xf9, 0xf6, 0xc9, 0xb6, 0x66, 0x9f, 
  0x03, 0x82, 0xe2, 0xb7, 0x54, 0x27, 0x86, 0xa6, 0x4e, 0x38, 0xf0, 0xba, 
  0x1d, 0xf3, 0x9a, 0x8d, 0xd8, 0x46, 0x1f, 0x0c, 0x66, 0x8f, 0x58, 0x0d, 
  0x86, 0x01, 0x23, 0x62, 0xe9, 0x0a, 0x21, 0xa3, 0x6c, 0x3c, 0x2f, 0x20, 
  0xeb, 0x71, 0xee, 0x7a, 0x94, 0x9e, 0x2f, 0x83, 0x78, 0x8d, 0x2e, 0x30, 
  0xc5, 0x65, 0xfa, 0xb3, 0xc7, 0x49, 0x29, 0xcc, 0x34, 0xd5, 0x10, 0xe2, 
  0x66, 0x53, 0x91, 0x9e, 0x46, 0xe2, 0x9c, 0x70, 0x7e, 0x85, 0x98, 0x91, 
  0xc5, 0x2c, 0xb4, 0x13, 0x06, 0xda, 0x61, 0x5f, 0x57, 0xa1, 0x50, 0xab, 
  0x30, 0x1e, 0x67, 0xd6, 0xdf, 0xee, 0xfb, 0x9d, 0x07, 0xb3, 0xcf, 0x5c, 
  0xec, 0x0b, 0x32, 0x27, 0xcc, 0xc6, 0xa0, 0x7b, 0x45, 0x5b, 0xb4, 0xc8, 
  0xc8, 0xc7, 0x8e, 0xa3, 0xbe, 0x87, 0x28, 0x11, 0x46, 0x42, 0xfa, 0xdd, 
  0x70, 0x21, 0x04, 0xfe, 0xa6, 0x3c, 0xf3, 0xda, 0x96, 0x54, 0x0f, 0xb9, 
  0x47, 0xa9, 0xa0, 0x9b, 0x96, 0xa9, 0x2c, 0xe2, 0x02, 0x14, 0x0d, 0x7d, 
  0x76, 0xe7, 0x13, 0x54, 0xf6, 0xf1, 0x57, 0xdf, 0x9c, 0x81, 0x85, 0xd2, 
  0xfb, 0x0f, 0x06, 0x7b, 0x15, 0x91, 0x3e, 0x16, 0x3a, 0x15, 0xfe, 0x40, 
  0xb9, 0xc6, 0x1f, 0xdb, 0x76, 0x69, 0x9c, 0xa7, 0xbb, 0x3d, 0xaa, 0x70, 
  0xff, 0x0c, 0x46, 0x71, 0x54, 0xfa, 0x2f, 0x69, 0x00, 0xea, 0x6f, 0x90, 
  0xb1, 0xa2, 0x92, 0x51, 0xc0, 0x66, 0x91, 0x74, 0x3b, 0x40, 0xde, 0xa7, 
  0xdf, 0x7a, 0xd1, 0xd6, 0x7b, 0xce, 0xab, 0x86, 0x04, 0x6d, 0xef, 0xea, 
  0xc1, 0x59, 0x89, 0x22, 0x9b, 0xe4, 0xe3, 0xef, 0x16, 0xee, 0xc8, 0x3f, 
  0xc7, 0x04, 0xf3, 0x57, 0xf1, 0x87, 0x66, 0x49, 0xfb, 0x65, 0x22, 0x2b, 
  0x3e, 0xb4, 0xbf, 0x7e, 0x0e, 0x14, 0xfb, 0x7f, 0x96, 0x92, 0xc3, 0x3c, 
  0xf1, 0x17, 0x96, 0xc8, 0x8b, 0xc4, 0x03, 0x67, 0x6e, 0x8f, 0xb9, 0x89, 
  0x54, 0xb2, 0xab, 0xc1, 0xaa, 0x30, 0x46, 0x95, 0xa9, 0x0a, 0xf4, 0xa8, 
  0x4b, 0x83, 0x0e, 0xde, 0x23, 0x98, 0x42, 0x78, 0x29, 0xa9, 0x72, 0x98, 
  0xe5, 0x10, 0x0b, 0xda, 0x31, 0xe2, 0x2a, 0xe9, 0xe3, 0xe2, 0x22, 0x34, 
  0x07, 0x2a, 0x28, 0xf0, 0x3d, 0x00, 0xf2, 0x2d, 0x26, 0xff, 0xf3, 0xf5, 
  0x09, 0x27, 0x24, 0xe3, 0xfa, 0xe2, 0x08, 0x04, 0xfa, 0x2d, 0xf3, 0x00, 
  0x02, 0xea, 0xec, 0x32, 0x32, 0x24, 0xdb, 0x18, 0x24, 0x2d, 0xed, 0x12, 
  0xe8, 0xfd, 0xea, 0x1e, 0xd4, 0xe8, 0xde, 0x3c, 0xf8, 0xd8, 0x06, 0xe3, 
  0x1b, 0xf5, 0x10, 0xe4, 0x27, 0x01, 0x14, 0x3e, 0x1b, 0xec, 0xf7, 0xf8, 
  0xfa, 0xea, 0x40, 0x37, 0x09, 0x28, 0x2e, 0xd7, 0x35, 0xd4, 0x1c, 0x2e, 
  0x31, 0x4a, 0xe7, 0xda, 0xf1, 0x17, 0x32, 0xe4, 0x17, 0x27, 0x07, 0x02, 
  0x16, 0xfe, 0x3d, 0x19, 0xe6, 0x32, 0x2c, 0xf2, 0x1b, 0xe0, 0x2f, 0x26, 
  0x04, 0x1b, 0xfe, 0x0f, 0xe2, 0xea, 0xeb, 0xce, 0x00, 0x03, 0xfd, 0x12, 
  0xe9, 0x0c, 0xe2, 0x32, 0x2d, 0x0b, 0x37, 0xf2, 0xfb, 0x3d, 0x1a, 0x28, 
  0x03, 0xf6, 0xd6, 0x1e, 0x1d, 0xd1, 0x0c, 0xda, 0x23, 0x1b, 0xff, 0x23, 
  0xdd, 0xd9, 0x24, 0x01, 0x2d, 0x24, 0xf8, 0xdc, 0xe7, 0xc0, 0x09, 0x41, 
  0xfd, 0x41, 0x23, 0xea, 0xbb, 0xb1, 0x1c, 0x3d, 0x08, 0x0d, 0xd0, 0xea, 
  0x94, 0xf2, 0x23, 0x40, 0xe1, 0x31, 0x09, 0xf5, 0x29, 0x1a, 0xf3, 0xc8, 
  0x15, 0x06, 0x36, 0xfe, 0xf5, 0xf3, 0xf7, 0xea, 0x27, 0x32, 0xea, 0x0f, 
  0x04, 0xf2, 0xe1, 0x01, 0xd7, 0x34, 0xea, 0x1e, 0x31, 0x03, 0x1d, 0x1b, 
  0x2b, 0x23, 0x26, 0xed, 0x04, 0xc3, 0x11, 0xfb, 0xda, 0xfe, 0x11, 0x0b, 
  0x96, 0xc9, 0xd2, 0xb3, 0x1d, 0x2e, 0xbe, 0xc1, 0x86, 0xc7, 0x02, 0xb6, 
  0xb5, 0x20, 0xca, 0xc1, 0xa4, 0xdd, 0x44, 0xd8, 0x0c, 0x23, 0xe3, 0xc8, 
  0xf4, 0xec, 0x1e, 0xc4, 0x25, 0x03, 0xf7, 0xe5, 0x2a, 0x25, 0xc6, 0x23, 
  0x29, 0xcd, 0x01, 0xf7, 0x0a, 0xd8, 0x07, 0x06, 0xd9, 0x18, 0x19, 0x1f, 
  0xe0, 0xef, 0xeb, 0x14, 0xe0, 0xe4, 0x2c, 0xe5, 0x2d, 0xd5, 0xed, 0xc6, 
  0xde, 0x42, 0xf5, 0x2e, 0xaf, 0xe6, 0xd3, 0xcb, 0x10, 0xcd, 0xbf, 0xd9, 
  0x81, 0xcd, 0xc6, 0xa8, 0x02, 0x28, 0x05, 0xc3, 0xa5, 0xf2, 0x03, 0xba, 
  0xeb, 0xea, 0xd2, 0xdd, 0xd8, 0x2d, 0x44, 0xe5, 0x1b, 0x34, 0x04, 0xf6, 
  0x03, 0x0b, 0x0f, 0xe1, 0xd6, 0xdc, 0x3c, 0x08, 0x1c, 0xd7, 0x2a, 0x0f, 
  0x1e, 0xfb, 0x2c, 0x14, 0x16, 0x2d, 0x28, 0xfa, 0x19, 0xf2, 0xe5, 0x26, 
  0x27, 0xdb, 0xe7, 0x19, 0x26, 0x1f, 0x06, 0x05, 0xec, 0xf6, 0xed, 0xc5, 
  0xef, 0xd3, 0xc7, 0xff, 0x93, 0xc3, 0xf2, 0xfa, 0xf9, 0xba, 0xe8, 0xe4, 
  0xcb, 0xdd, 0x42, 0xb2, 0x10, 0xeb, 0x30, 0x1f, 0x15, 0x2b, 0x22, 0xd2, 
  0xde, 0xfb, 0x01, 0x03, 0x16, 0x07, 0x3b, 0xe2, 0x2b, 0xe7, 0x03, 0xea, 
  0x10, 0xdc, 0x0d, 0xfa, 0x38, 0x1a, 0x12, 0xfa, 0x1e, 0x1c, 0x06, 0xe2, 
  0xf1, 0x1b, 0x22, 0x38, 0x46, 0x17, 0xee, 0xd4, 0x3a, 0x2c, 0x39, 0xec, 
  0x2c, 0x32, 0x34, 0xec, 0xfe, 0x25, 0x00, 0xd6, 0x02, 0xd1, 0xf8, 0xcc, 
  0x41, 0x40, 0x02, 0xfe, 0xf5, 0x2a, 0x34, 0x04, 0xd9, 0x38, 0x24, 0xe4, 
  0xe4, 0xe9, 0x17, 0xf8, 0xd8, 0xd3, 0x1b, 0x12, 0xe4, 0x11, 0x24, 0x37, 
  0xec, 0xfc, 0xe9, 0x0a, 0x44, 0x3b, 0x07, 0xff, 0x2b, 0xfe, 0xf9, 0x05, 
  0xf0, 0x2b, 0x23, 0xee, 0x3c, 0xf5, 0xd5, 0xe7, 0xf8, 0x29, 0xe0, 0x12, 
  0x37, 0x08, 0xe9, 0x13, 0xf0, 0x29, 0x38, 0x37, 0x00, 0xfe, 0x1d, 0x39, 
  0x0a, 0x28, 0xf6, 0xd5, 0x35, 0xf5, 0x1e, 0xf4, 0x26, 0xdd, 0x1a, 0xfc, 
  0xdf, 0xed, 0x22, 0x21, 0x3c, 0x02, 0x1f, 0xdf, 0x19, 0x2b, 0x18, 0x35, 
  0x2d, 0x27, 0x15, 0x32, 0x30, 0xf7, 0xda, 0x09, 0xd4, 0xd8, 0x3d, 0xbb, 
  0x23, 0xf5, 0xd5, 0xb5, 0x01, 0x40, 0x26, 0xfd, 0xdd, 0xbe, 0xc2, 0x3b, 
  0x00, 0xe5, 0x45, 0xf9, 0x09, 0xf2, 0x2d, 0x20, 0x4b, 0xdf, 0xf3, 0xe2, 
  0xd9, 0x19, 0xbb, 0xdd, 0x1e, 0x10, 0x43, 0x01, 0x37, 0x18, 0x10, 0x48, 
  0x48, 0x20, 0x13, 0x0f, 0x26, 0x29, 0xc3, 0x15, 0x34, 0x11, 0x30, 0x25, 
  0x06, 0x21, 0x41, 0x28, 0x0c, 0x47, 0x00, 0x39, 0x22, 0x43, 0x2a, 0xcd, 
  0xe3, 0xf0, 0x3f, 0x0c, 0xc2, 0xea, 0xfb, 0xfa, 0xf5, 0xcc, 0xbf, 0x16, 
  0x2f, 0x11, 0xb5, 0xef, 0x21, 0x13, 0x38, 0x0e, 0xf8, 0x10, 0xd1, 0x1c, 
  0x00, 0xc4, 0xfd, 0xd9, 0xcc, 0xda, 0xcb, 0x00, 0xf9, 0xf1, 0xdd, 0xde, 
  0xaf, 0xaa, 0x11, 0x36, 0x0e, 0xd1, 0xd7, 0xf8, 0xdb, 0x16, 0x25, 0xdd, 
  0xe7, 0xd9, 0x3b, 0xab, 0xff, 0xde, 0x17, 0xd2, 0xce, 0x07, 0xd8, 0x39, 
  0xcd, 0xcf, 0xe8, 0x1c, 0xba, 0xf6, 0x3f, 0xc9, 0x12, 0xfc, 0xe1, 0x1c, 
  0xb7, 0xe4, 0x20, 0x19, 0xeb, 0xdd, 0xbf, 0xf2, 0xe0, 0x39, 0xdd, 0xe7, 
  0xfe, 0x11, 0x01, 0x07, 0xb6, 0x42, 0x0a, 0x10, 0xfe, 0x20, 0xd7, 0x3a, 
  0x02, 0xd7, 0xce, 0xc8, 0xe2, 0xc4, 0x05, 0x20, 0x29, 0x13, 0xd9, 0xc7, 
  0x38, 0xd4, 0xb6, 0xf9, 0x8f, 0xc7, 0x2b, 0xc2, 0x10, 0xf7, 0xf2, 0x35, 
  0x06, 0xab, 0xe1, 0x25, 0x10, 0xf7, 0x31, 0xd0, 0xff, 0x3a, 0xe3, 0xb6, 
  0xea, 0xbb, 0xea, 0xe6, 0x90, 0xd9, 0xe9, 0xb2, 0xfa, 0x20, 0x2c, 0x2e, 
  0xbe, 0x35, 0x27, 0xa9, 0x4a, 0xe2, 0xe0, 0xcc, 0x46, 0x4b, 0xfb, 0x19, 
  0x50, 0x4f, 0x5b, 0xdc, 0xf0, 0x24, 0xf3, 0x15, 0x4b, 0xf9, 0x26, 0x50, 
  0x5a, 0xda, 0x18, 0xd7, 0x1b, 0x2b, 0xe8, 0x19, 0xb5, 0x16, 0x14, 0x26, 
  0xdf, 0x53, 0x08, 0xf7, 0x9f, 0xb1, 0xfa, 0xe0, 0x15, 0x2c, 0x3c, 0x47, 
  0x0e, 0xf1, 0x3f, 0x25, 0xe8, 0xc6, 0x36, 0x0a, 0x18, 0xd9, 0x32, 0xca, 
  0x09, 0xd1, 0xff, 0xf1, 0xd8, 0xe8, 0x44, 0xb6, 0x30, 0x63, 0x42, 0xf6, 
  0xdf, 0x22, 0xe2, 0xe0, 0x5c, 0x6a, 0xfb, 0x3b, 0x3f, 0xd0, 0x5c, 0xe9, 
  0xe8, 0x44, 0x4c, 0xd5, 0xce, 0xba, 0x43, 0xab, 0xd2, 0x5e, 0x38, 0x37, 
  0xe1, 0xe3, 0xf8, 0xc9, 0xc2, 0x29, 0x58, 0x4e, 0x9d, 0x2c, 0x43, 0xca, 
  0x06, 0x44, 0x06, 0xc1, 0x45, 0x44, 0x3f, 0x33, 0x1e, 0x1a, 0xfb, 0xf9, 
  0xef, 0xf4, 0xc8, 0xe2, 0x24, 0xff, 0x2e, 0x2d, 0x81, 0xfc, 0x72, 0xc2, 
  0x46, 0x37, 0x5c, 0x14, 0xa6, 0xef, 0x6a, 0xad, 0x61, 0x0c, 0xdb, 0xe5, 
  0x1c, 0x37, 0x4b, 0xdc, 0x20, 0x22, 0x19, 0x31, 0xfa, 0xb6, 0x0f, 0xdf, 
  0x0d, 0xeb, 0xf4, 0x50, 0xe5, 0x02, 0x18, 0xff, 0x01, 0x0a, 0x38, 0x42, 
  0x01, 0x06, 0xf5, 0x24, 0x3d, 0xed, 0xd7, 0x31, 0x0b, 0x1f, 0x3e, 0x03, 
  0x38, 0xd3, 0xbe, 0x08, 0xc4, 0x3f, 0x39, 0x11, 0x24, 0xd7, 0x1b, 0x46, 
  0xd8, 0xd6, 0x0c, 0xd4, 0xe3, 0xb7, 0xe8, 0xeb, 0xa3, 0xe6, 0x13, 0x16, 
  0x57, 0x30, 0x52, 0xd0, 0xbb, 0x09, 0x06, 0x25, 0x4e, 0xcd, 0x38, 0x0e, 
  0x13, 0x39, 0xf8, 0xc9, 0x3e, 0x26, 0x48, 0xe9, 0xff, 0x01, 0x11, 0xbe, 
  0x33, 0x2b, 0xde, 0xb5, 0x0f, 0x24, 0x0f, 0x24, 0xdf, 0x41, 0xd6, 0x2d, 
  0x2b, 0xe8, 0xfa, 0xfd, 0x24, 0xc6, 0xec, 0xb6, 0x32, 0x04, 0xe2, 0x0f, 
  0x15, 0x02, 0x46, 0x45, 0xed, 0x12, 0x32, 0xd9, 0x02, 0xee, 0x01, 0x1c, 
  0xf8, 0x0d, 0x47, 0xca, 0x28, 0x26, 0x47, 0x3a, 0x04, 0xfc, 0x3f, 0x1b, 
  0x35, 0xbb, 0x2e, 0xcb, 0x03, 0x23, 0xe3, 0x33, 0x1e, 0xef, 0x1c, 0x40, 
  0x46, 0x09, 0x04, 0x3f, 0xc3, 0x24, 0x1b, 0x42, 0x0f, 0xf7, 0xfc, 0x24, 
  0xf6, 0xe8, 0xff, 0x11, 0xeb, 0xc9, 0xd4, 0x50, 0xd6, 0x1c, 0x16, 0xc9, 
  0xe2, 0xbc, 0xc0, 0xc6, 0xbe, 0x3e, 0xe9, 0xf8, 0xee, 0x1e, 0x18, 0xfe, 
  0x01, 0x4e, 0x46, 0xd0, 0xf4, 0x39, 0x1a, 0x1e, 0xc9, 0xfb, 0x4d, 0xc5, 
  0x47, 0xcd, 0xc9, 0xee, 0x11, 0x30, 0xfb, 0x3b, 0x0d, 0xbf, 0x4a, 0x2e, 
  0x06, 0xe6, 0x48, 0xb8, 0xee, 0x21, 0x32, 0x09, 0xc8, 0x1d, 0xc9, 0xbb, 
  0x0a, 0xd7, 0x38, 0x18, 0xf8, 0x18, 0x31, 0x14, 0x26, 0x0e, 0x22, 0x14, 
  0x11, 0xc2, 0xb3, 0xf4, 0xd3, 0xf9, 0xe8, 0x96, 0xb9, 0x14, 0x23, 0x4b, 
  0xbf, 0xed, 0x24, 0x82, 0x17, 0xf1, 0x4b, 0x13, 0xd9, 0x15, 0x8b, 0xf9, 
  0x9a, 0x8e, 0xcb, 0xb3, 0xa8, 0x47, 0xde, 0xc1, 0xdb, 0x18, 0x49, 0xf7, 
  0x3f, 0xab, 0xd6, 0x92, 0x33, 0xdd, 0xdd, 0x14, 0xd9, 0x2b, 0xf2, 0x98, 
  0x30, 0x21, 0xb6, 0x09, 0x1d, 0x1a, 0x42, 0x4a, 0x18, 0xe2, 0xfd, 0xcc, 
  0xe2, 0xcc, 0x4f, 0xf9, 0x41, 0xc2, 0x09, 0xb7, 0x41, 0x12, 0x46, 0xd8, 
  0xc5, 0x38, 0x36, 0xd2, 0xf8, 0x23, 0xb9, 0x8d, 0xf9, 0xd6, 0x4c, 0x36, 
  0x14, 0x17, 0x06, 0xf5, 0xc8, 0xeb, 0x54, 0x5c, 0xb6, 0x0c, 0xef, 0xce, 
  0xd8, 0x01, 0x5e, 0x43, 0x74, 0xf6, 0x36, 0x0d, 0xf0, 0x61, 0x26, 0x60, 
  0x15, 0x3e, 0xaf, 0xe3, 0x26, 0xce, 0xdc, 0x1e, 0x47, 0xef, 0xd8, 0x0e, 
  0xf7, 0xe2, 0x47, 0x23, 0xf6, 0x1e, 0xf7, 0xc1, 0xe2, 0xf9, 0x4f, 0x0b, 
  0xee, 0x14, 0x25, 0xa2, 0x03, 0xd9, 0x26, 0x55, 0x32, 0x3c, 0x45, 0xa0, 
  0x4e, 0x36, 0x65, 0x4c, 0x16, 0xe4, 0x62, 0xb9, 0xf1, 0x17, 0x05, 0x0f, 
  0xae, 0xf0, 0x4c, 0xfe, 0xea, 0x13, 0xe0, 0x58, 0x63, 0x64, 0xf0, 0xf0, 
  0x19, 0x38, 0x1c, 0x3c, 0xc1, 0x0e, 0x39, 0xe8, 0x31, 0x65, 0x44, 0x2c, 
  0x9e, 0xc1, 0x11, 0x07, 0xf9, 0xe3, 0x16, 0x1e, 0xe4, 0xd9, 0x15, 0xaa, 
  0xeb, 0x01, 0x0a, 0xcf, 0x0e, 0xe6, 0x1b, 0xc3, 0xfa, 0x55, 0x1e, 0xf6, 
  0x33, 0x19, 0x51, 0xa3, 0xe9, 0xcd, 0x39, 0x40, 0xc3, 0x55, 0x1c, 0xe4, 
  0x6c, 0xfa, 0x6e, 0x39, 0x81, 0xfc, 0x0d, 0xba, 0xe4, 0x70, 0x15, 0xf6, 
  0x2e, 0x46, 0x34, 0x19, 0x6a, 0x07, 0xe8, 0x6c, 0x16, 0x12, 0x53, 0x59, 
  0x43, 0x24, 0x34, 0x33, 0x05, 0x0f, 0x5c, 0xc8, 0xdb, 0x26, 0x1b, 0x0b, 
  0xc6, 0xff, 0x4c, 0x1e, 0xd0, 0xf8, 0x13, 0xff, 0x0a, 0x4b, 0x2a, 0x38, 
  0x37, 0x30, 0x14, 0x19, 0x0d, 0x03, 0x43, 0x9f, 0xe8, 0x08, 0x57, 0xf4, 
  0x61, 0xd8, 0x54, 0xf3, 0xec, 0x72, 0xef, 0x63, 0x13, 0xcc, 0x57, 0xa9, 
  0xfd, 0x6c, 0x44, 0x27, 0xe0, 0x21, 0x09, 0x0b, 0xe5, 0x0b, 0x5f, 0x17, 
  0x34, 0x41, 0xd8, 0x2c, 0x3d, 0xdb, 0xc3, 0x13, 0x19, 0xf9, 0xc7, 0xb7, 
  0xbd, 0xe0, 0x28, 0x31, 0x0a, 0x3f, 0xe5, 0x01, 0xdd, 0xb2, 0xe2, 0x2a, 
  0xaf, 0x1f, 0x15, 0xde, 0xf1, 0xd4, 0xf2, 0x3d, 0x28, 0xe5, 0xd5, 0x16, 
  0x1e, 0x46, 0x26, 0xe7, 0xf3, 0x12, 0x52, 0xee, 0x43, 0xeb, 0x4b, 0xb4, 
  0xd9, 0xc7, 0x2f, 0xc2, 0xf3, 0x0a, 0x3e, 0xda, 0xb4, 0xd1, 0xf7, 0xca, 
  0x32, 0x0b, 0x38, 0x43, 0xf5, 0x38, 0xbb, 0x10, 0x26, 0x00, 0x0c, 0x2d, 
  0x17, 0xbf, 0xe2, 0xc7, 0xf3, 0x4b, 0xb7, 0x1e, 0xe4, 0x27, 0xf1, 0x00, 
  0xe6, 0xd7, 0x27, 0x0a, 0x13, 0x02, 0xe3, 0x39, 0xcf, 0xfa, 0x18, 0xd7, 
  0x4c, 0xcc, 0xd9, 0x2d, 0x03, 0x20, 0xea, 0x20, 0xf4, 0x22, 0x09, 0x1e, 
  0x0e, 0x3f, 0xc5, 0x04, 0x35, 0x37, 0xce, 0xde, 0xd7, 0xfc, 0xe2, 0xe7, 
  0x24, 0xbb, 0x0a, 0xe8, 0xef, 0xd0, 0xe8, 0x48, 0x39, 0xe8, 0xc9, 0x4f, 
  0x1a, 0x45, 0x1d, 0x2f, 0xf2, 0xd0, 0xc7, 0x1d, 0xfc, 0x29, 0x33, 0x21, 
  0x10, 0x0c, 0x14, 0xd6, 0xfb, 0x36, 0x1e, 0x16, 0x0b, 0xe0, 0x01, 0x38, 
  0x36, 0xf9, 0xe7, 0x17, 0x0c, 0xe7, 0xef, 0xdd, 0xf4, 0xe3, 0x12, 0x08, 
  0x45, 0x0a, 0x2c, 0xf9, 0xde, 0x14, 0xe4, 0x19, 0xef, 0xef, 0xd1, 0x14, 
  0x08, 0xe9, 0x14, 0xe7, 0x1c, 0x31, 0xcf, 0x02, 0xd4, 0xe8, 0xe9, 0x18, 
  0x3e, 0x1b, 0xfa, 0xd1, 0xd9, 0x00, 0xe3, 0xe3, 0x32, 0xec, 0xe5, 0x20, 
  0xef, 0x03, 0x1c, 0x1d, 0xee, 0x28, 0x35, 0x13, 0xd5, 0xd6, 0x2f, 0xfb, 
  0x19, 0x2b, 0x01, 0x2d, 0xdb, 0xfa, 0xe7, 0xff, 0xe7, 0x1f, 0x10, 0x34, 
  0x2b, 0x3a, 0x10, 0xd5, 0x0b, 0x22, 0xfc, 0x08, 0x36, 0x33, 0xd6, 0x0e, 
  0xea, 0x21, 0x04, 0xe8, 0xe3, 0x3f, 0xe5, 0x24, 0x3e, 0xd1, 0x20, 0x10, 
  0x05, 0x35, 0x17, 0xde, 0xf9, 0x0d, 0xd4, 0x16, 0x15, 0x1e, 0x0a, 0x06, 
  0x43, 0x01, 0x0f, 0x2a, 0x28, 0xdf, 0x27, 0xe0, 0x2e, 0x13, 0xd3, 0x15, 
  0xe0, 0x20, 0xf8, 0x02, 0x1f, 0x18, 0x25, 0x23, 0x22, 0xf0, 0x35, 0x28, 
  0xdf, 0x1d, 0x00, 0x28, 0xf9, 0x0e, 0xf0, 0xc3, 0xc0, 0x09, 0xf4, 0x43, 
  0xf7, 0x29, 0x0b, 0x16, 0xcf, 0x04, 0x16, 0x44, 0x19, 0x26, 0xfa, 0x0c, 
  0x99, 0x17, 0xe5, 0x3a, 0xf6, 0x01, 0xfc, 0xe7, 0x0c, 0x03, 0x06, 0xdf, 
  0xc4, 0xf0, 0xd1, 0xd6, 0x04, 0xef, 0x0f, 0xc9, 0xcb, 0x16, 0x33, 0xcf, 
  0xfe, 0x00, 0xd4, 0x0b, 0xf7, 0xe8, 0xf9, 0xfd, 0xcc, 0x10, 0xf6, 0xf1, 
  0x28, 0xd7, 0x18, 0x1a, 0x2e, 0xf9, 0x10, 0x09, 0xcb, 0x10, 0x27, 0x09, 
  0x85, 0xa3, 0x0f, 0x05, 0x06, 0xfe, 0xdd, 0x0c, 0x81, 0xb5, 0x16, 0xfd, 
  0xc9, 0xbd, 0xf3, 0xc3, 0x9c, 0xbc, 0x00, 0xc5, 0xfd, 0xf5, 0xe8, 0xdd, 
  0x02, 0x08, 0xf3, 0x13, 0x16, 0x2c, 0x16, 0xdf, 0x18, 0xdd, 0x0f, 0xd8, 
  0x24, 0x0c, 0x0e, 0x2f, 0x03, 0x23, 0xed, 0x30, 0x0f, 0x01, 0xe8, 0xfb, 
  0x09, 0xfc, 0x22, 0xe4, 0x26, 0xdc, 0x36, 0xfb, 0xd7, 0xd8, 0x06, 0xfe, 
  0xd9, 0x21, 0x06, 0xfe, 0xc8, 0xa4, 0xc7, 0x0c, 0x0b, 0xda, 0xfc, 0xcf, 
  0x9a, 0xc2, 0xfe, 0xfe, 0xff, 0xe6, 0xbc, 0xf9, 0x86, 0xb8, 0x28, 0x09, 
  0xbb, 0xf0, 0xbd, 0xee, 0x02, 0x2f, 0x1f, 0x00, 0x11, 0xea, 0x34, 0x12, 
  0xfd, 0x15, 0xee, 0x20, 0xd0, 0xe2, 0xe5, 0xe5, 0xfd, 0xfb, 0xda, 0x2b, 
  0xd7, 0xd1, 0x1b, 0x15, 0xeb, 0x32, 0x18, 0xf0, 0xdc, 0x22, 0xd7, 0xe2, 
  0xd4, 0xc6, 0xc0, 0xf3, 0x1a, 0xfc, 0xed, 0xf9, 0xc6, 0x10, 0xdd, 0xd6, 
  0xe8, 0xd2, 0xc6, 0xe5, 0xb7, 0xe9, 0xea, 0xba, 0xe8, 0x15, 0xe9, 0xe9, 
  0x89, 0xf9, 0x40, 0x0c, 0xf3, 0xee, 0xe7, 0x02, 0x29, 0x28, 0x1c, 0x28, 
  0x28, 0xdc, 0x21, 0x08, 0x16, 0xf3, 0x29, 0x35, 0x19, 0x01, 0x22, 0x32, 
  0x3a, 0xef, 0xcf, 0x15, 0x15, 0xcf, 0x03, 0x36, 0x0c, 0x05, 0xd3, 0xff, 
  0x29, 0xff, 0x04, 0x27, 0x1e, 0xf5, 0xdf, 0x2c, 0x2b, 0x0b, 0x22, 0x18, 
  0x2d, 0x2a, 0xdc, 0x22, 0xf5, 0xd6, 0x0d, 0x27, 0x2f, 0xea, 0xd9, 0x05, 
  0x0e, 0xd4, 0x32, 0x0e, 0x01, 0xfe, 0xfc, 0xdb, 0x35, 0x2c, 0x05, 0x2a, 
  0xf5, 0x17, 0xf5, 0xe7, 0x16, 0xdb, 0xe1, 0xe0, 0x0d, 0x31, 0xfe, 0x32, 
  0x33, 0xd5, 0x21, 0x0c, 0x13, 0xf0, 0xfa, 0xd5, 0x11, 0x21, 0x15, 0xfb, 
  0x28, 0x20, 0x13, 0x19, 0xe3, 0x15, 0x1f, 0x25, 0x0a, 0xe2, 0xe1, 0x32, 
  0x32, 0x0f, 0x1f, 0xfd, 0xe4, 0x36, 0x2c, 0x33, 0xf9, 0x33, 0x26, 0xf5, 
  0x3f, 0x09, 0xcd, 0x1d, 0xe9, 0xf7, 0x1f, 0x12, 0x1e, 0x06, 0xe0, 0xf2, 
  0x1b, 0xd0, 0x0a, 0xfc, 0x13, 0x10, 0xf9, 0x0b, 0x2d, 0xec, 0xf5, 0x12, 
  0x19, 0x2e, 0xe8, 0x00, 0xdf, 0x31, 0x33, 0x00, 0x8a, 0xfd, 0xff, 0xff, 
  0x04, 0x00, 0x00, 0x00, 0x40, 0x00, 0x00, 0x00, 0x41, 0x01, 0x00, 0x00, 
  0xf2, 0xff, 0xff, 0xff, 0xae, 0xfe, 0xff, 0xff, 0x10, 0x00, 0x00, 0x00, 
  0x10, 0xfd, 0xff, 0xff, 0x43, 0x00, 0x00, 0x00, 0x6c, 0xfe, 0xff, 0xff, 
  0x00, 0x00, 0x00, 0x00, 0x88, 0xff, 0xff, 0xff, 0x00, 0x00, 0x00, 0x00, 
  0xff, 0xfe, 0xff, 0xff, 0x00, 0x00, 0x00, 0x00, 0x0f, 0x01, 0x00, 0x00, 
  0xc5, 0xff, 0xff, 0xff, 0xfa, 0xff, 0xff, 0xff, 0x3a, 0x00, 0x00, 0x00, 
  0xd6, 0xfd, 0xff, 0xff, 0x04, 0x00, 0x00, 0x00, 0x40, 0x00, 0x00, 0x00, 
  0x81, 0x3d, 0x31, 0x4e, 0x6c, 0xc2, 0x51, 0xa5, 0x6e, 0x40, 0xb2, 0x4e, 
  0xe0, 0x0c, 0x2b, 0x92, 0xbe, 0x81, 0x29, 0xe2, 0x86, 0xd2, 0xb1, 0xfc, 
  0x2b, 0x15, 0x27, 0x81, 0x36, 0xea, 0x4a, 0xde, 0xb3, 0x81, 0xcc, 0x9b, 
  0x72, 0x74, 0x0d, 0x6f, 0xf8, 0xf3, 0xf6, 0xdc, 0x77, 0xe0, 0xac, 0x45, 
  0xd1, 0x6a, 0xa0, 0xa2, 0x04, 0x75, 0xb9, 0xbe, 0x38, 0x60, 0xc7, 0xd9, 
  0xd5, 0x81, 0x88, 0xc5, 0x22, 0xfe, 0xff, 0xff, 0x04, 0x00, 0x00, 0x00, 
  0x10, 0x00, 0x00, 0x00, 0xed, 0xff, 0xff, 0xff, 0x19, 0x00, 0x00, 0x00, 
  0xfa, 0xff, 0xff, 0xff, 0x0a, 0x00, 0x00, 0x00, 0x3e, 0xfe, 0xff, 0xff, 
  0x04, 0x00, 0x00, 0x00, 0x04, 0x00, 0x00, 0x00, 0x00, 0x02, 0x00, 0x00, 
  0x4e, 0xfe, 0xff, 0xff, 0x04, 0x00, 0x00, 0x00, 0x04, 0x00, 0x00, 0x00, 
  0x01, 0x00, 0x00, 0x00, 0x5e, 0xfe, 0xff, 0xff, 0x04, 0x00, 0x00, 0x00, 
  0x04, 0x00, 0x00, 0x00, 0x00, 0x00, 0x00, 0x00, 0x20, 0xed, 0xff, 0xff, 
  0x24, 0xed, 0xff, 0xff, 0x0f, 0x00, 0x00, 0x00, 0x4d, 0x4c, 0x49, 0x52, 
  0x20, 0x43, 0x6f, 0x6e, 0x76, 0x65, 0x72, 0x74, 0x65, 0x64, 0x2e, 0x00, 
  0x01, 0x00, 0x00, 0x00, 0x14, 0x00, 0x00, 0x00, 0x00, 0x00, 0x0e, 0x00, 
  0x18, 0x00, 0x14, 0x00, 0x10, 0x00, 0x0c, 0x00, 0x08, 0x00, 0x04, 0x00, 
  0x0e, 0x00, 0x00, 0x00, 0x14, 0x00, 0x00, 0x00, 0x1c, 0x00, 0x00, 0x00, 
  0x5c, 0x03, 0x00, 0x00, 0x60, 0x03, 0x00, 0x00, 0x64, 0x03, 0x00, 0x00, 
  0x04, 0x00, 0x00, 0x00, 0x6d, 0x61, 0x69, 0x6e, 0x00, 0x00, 0x00, 0x00, 
  0x0d, 0x00, 0x00, 0x00, 0x24, 0x03, 0x00, 0x00, 0xc8, 0x02, 0x00, 0x00, 
  0x64, 0x02, 0x00, 0x00, 0x10, 0x02, 0x00, 0x00, 0xcc, 0x01, 0x00, 0x00, 
  0x90, 0x01, 0x00, 0x00, 0x40, 0x01, 0x00, 0x00, 0x00, 0x01, 0x00, 0x00, 
  0xd8, 0x00, 0x00, 0x00, 0x90, 0x00, 0x00, 0x00, 0x58, 0x00, 0x00, 0x00, 
  0x24, 0x00, 0x00, 0x00, 0x04, 0x00, 0x00, 0x00, 0x1a, 0xfd, 0xff, 0xff, 
  0x08, 0x00, 0x00, 0x00, 0x0c, 0x00, 0x00, 0x00, 0x01, 0x00, 0x00, 0x00, 
  0x18, 0x00, 0x00, 0x00, 0x01, 0x00, 0x00, 0x00, 0x17, 0x00, 0x00, 0x00, 
  0x92, 0xfd, 0xff, 0xff, 0x14, 0x00, 0x00, 0x00, 0x00, 0x00, 0x00, 0x09, 
  0x14, 0x00, 0x00, 0x00, 0x18, 0x00, 0x00, 0x00, 0x08, 0x00, 0x00, 0x00, 
  0x32, 0xff, 0xff, 0xff, 0x00, 0x00, 0x80, 0x3f, 0x01, 0x00, 0x00, 0x00, 
  0x17, 0x00, 0x00, 0x00, 0x01, 0x00, 0x00, 0x00, 0x16, 0x00, 0x00, 0x00, 
  0xc2, 0xfd, 0xff, 0xff, 0x14, 0x00, 0x00, 0x00, 0x00, 0x00, 0x00, 0x08, 
  0x10, 0x00, 0x00, 0x00, 0x14, 0x00, 0x00, 0x00, 0x07, 0x00, 0x00, 0x00, 
  0x14, 0xee, 0xff, 0xff, 0x01, 0x00, 0x00, 0x00, 0x16, 0x00, 0x00, 0x00, 
  0x03, 0x00, 0x00, 0x00, 0x15, 0x00, 0x00, 0x00, 0x05, 0x00, 0x00, 0x00, 
  0x04, 0x00, 0x00, 0x00, 0xf6, 0xfd, 0xff, 0xff, 0x14, 0x00, 0x00, 0x00, 
  0x00, 0x00, 0x00, 0x08, 0x14, 0x00, 0x00, 0x00, 0x18, 0x00, 0x00, 0x00, 
  0x07, 0x00, 0x00, 0x00, 0x0e, 0xff, 0xff, 0xff, 0x00, 0x00, 0x00, 0x01, 
  0x01, 0x00, 0x00, 0x00, 0x15, 0x00, 0x00, 0x00, 0x03, 0x00, 0x00, 0x00, 
  0x14, 0x00, 0x00, 0x00, 0x07, 0x00, 0x00, 0x00, 0x06, 0x00, 0x00, 0x00, 
  0x00, 0x00, 0x0a, 0x00, 0x10, 0x00, 0x0c, 0x00, 0x08, 0x00, 0x04, 0x00, 
  0x0a, 0x00, 0x00, 0x00, 0x0c, 0x00, 0x00, 0x00, 0x10, 0x00, 0x00, 0x00, 
  0x06, 0x00, 0x00, 0x00, 0x01, 0x00, 0x00, 0x00, 0x14, 0x00, 0x00, 0x00, 
  0x02, 0x00, 0x00, 0x00, 0x10, 0x00, 0x00, 0x00, 0x13, 0x00, 0x00, 0x00, 
  0xbe, 0xfe, 0xff, 0xff, 0x1c, 0x00, 0x00, 0x00, 0x00, 0x00, 0x00, 0x3b, 
  0x1c, 0x00, 0x00, 0x00, 0x20, 0x00, 0x00, 0x00, 0x05, 0x00, 0x00, 0x00, 
  0x00, 0x00, 0x06, 0x00, 0x08, 0x00, 0x04, 0x00, 0x06, 0x00, 0x00, 0x00, 
  0x02, 0x00, 0x00, 0x00, 0x01, 0x00, 0x00, 0x00, 0x13, 0x00, 0x00, 0x00, 
  0x02, 0x00, 0x00, 0x00, 0x12, 0x00, 0x00, 0x00, 0x03, 0x00, 0x00, 0x00, 
  0xfa, 0xfe, 0xff, 0xff, 0x24, 0x00, 0x00, 0x00, 0x00, 0x00, 0x00, 0x20, 
  0x24, 0x00, 0x00, 0x00, 0x28, 0x00, 0x00, 0x00, 0x04, 0x00, 0x00, 0x00, 
  0x00, 0x00, 0x0e, 0x00, 0x08, 0x00, 0x00, 0x00, 0x00, 0x00, 0x00, 0x00, 
  0x00, 0x00, 0x04, 0x00, 0x0e, 0x00, 0x00, 0x00, 0x01, 0x00, 0x00, 0x00, 
  0x01, 0x00, 0x00, 0x00, 0x12, 0x00, 0x00, 0x00, 0x04, 0x00, 0x00, 0x00, 
  0x11, 0x00, 0x00, 0x00, 0x01, 0x00, 0x00, 0x00, 0x02, 0x00, 0x00, 0x00, 
  0x02, 0x00, 0x00, 0x00, 0x46, 0xff, 0xff, 0xff, 0x1c, 0x00, 0x00, 0x00, 
  0x00, 0x00, 0x00, 0x37, 0x1c, 0x00, 0x00, 0x00, 0x20, 0x00, 0x00, 0x00, 
  0x03, 0x00, 0x00, 0x00, 0x00, 0x00, 0x06, 0x00, 0x08, 0x00, 0x07, 0x00, 
  0x06, 0x00, 0x00, 0x00, 0x00, 0x00, 0x00, 0x02, 0x01, 0x00, 0x00, 0x00, 
  0x11, 0x00, 0x00, 0x00, 0x01, 0x00, 0x00, 0x00, 0x10, 0x00, 0x00, 0x00, 
  0x1e, 0xff, 0xff, 0xff, 0x14, 0x00, 0x00, 0x00, 0x00, 0x00, 0x00, 0x05, 
  0x24, 0x00, 0x00, 0x00, 0x28, 0x00, 0x00, 0x00, 0x02, 0x00, 0x00, 0x00, 
  0x6e, 0xff, 0xff, 0xff, 0x02, 0x00, 0x00, 0x00, 0x02, 0x00, 0x00, 0x00, 
  0x02, 0x00, 0x00, 0x00, 0x02, 0x00, 0x00, 0x00, 0x00, 0x00, 0x00, 0x01, 
  0x01, 0x00, 0x00, 0x00, 0x10, 0x00, 0x00, 0x00, 0x01, 0x00, 0x00, 0x00, 
  0x0f, 0x00, 0x00, 0x00, 0x5e, 0xff, 0xff, 0xff, 0x14, 0x00, 0x00, 0x00, 
  0x00, 0x00, 0x00, 0x01, 0x1c, 0x00, 0x00, 0x00, 0x20, 0x00, 0x00, 0x00, 
  0x01, 0x00, 0x00, 0x00, 0x50, 0xff, 0xff, 0xff, 0x00, 0x00, 0x00, 0x01, 
  0x01, 0x00, 0x00, 0x00, 0x01, 0x00, 0x00, 0x00, 0x01, 0x00, 0x00, 0x00, 
  0x0f, 0x00, 0x00, 0x00, 0x03, 0x00, 0x00, 0x00, 0x0e, 0x00, 0x00, 0x00, 
  0x09, 0x00, 0x00, 0x00, 0x08, 0x00, 0x00, 0x00, 0x00, 0x00, 0x0e, 0x00, 
  0x1a, 0x00, 0x14, 0x00, 0x10, 0x00, 0x0c, 0x00, 0x0b, 0x00, 0x04, 0x00, 
  0x0e, 0x00, 0x00, 0x00, 0x24, 0x00, 0x00, 0x00, 0x00, 0x00, 0x00, 0x05, 
  0x34, 0x00, 0x00, 0x00, 0x38, 0x00, 0x00, 0x00, 0x02, 0x00, 0x00, 0x00, 
  0x00, 0x00, 0x0e, 0x00, 0x18, 0x00, 0x17, 0x00, 0x10, 0x00, 0x0c, 0x00, 
  0x08, 0x00, 0x04, 0x00, 0x0e, 0x00, 0x00, 0x00, 0x02, 0x00, 0x00, 0x00, 
  0x02, 0x00, 0x00, 0x00, 0x02, 0x00, 0x00, 0x00, 0x02, 0x00, 0x00, 0x00, 
  0x00, 0x00, 0x00, 0x01, 0x01, 0x00, 0x00, 0x00, 0x0e, 0x00, 0x00, 0x00, 
  0x01, 0x00, 0x00, 0x00, 0x0d, 0x00, 0x00, 0x00, 0x00, 0x00, 0x0e, 0x00, 
  0x18, 0x00, 0x14, 0x00, 0x10, 0x00, 0x0c, 0x00, 0x0b, 0x00, 0x04, 0x00, 
  0x0e, 0x00, 0x00, 0x00, 0x20, 0x00, 0x00, 0x00, 0x00, 0x00, 0x00, 0x01, 
  0x28, 0x00, 0x00, 0x00, 0x2c, 0x00, 0x00, 0x00, 0x01, 0x00, 0x00, 0x00, 
  0x0c, 0x00, 0x10, 0x00, 0x00, 0x00, 0x0c, 0x00, 0x08, 0x00, 0x07, 0x00, 
  0x0c, 0x00, 0x00, 0x00, 0x00, 0x00, 0x00, 0x01, 0x01, 0x00, 0x00, 0x00, 
  0x01, 0x00, 0x00, 0x00, 0x01, 0x00, 0x00, 0x00, 0x0d, 0x00, 0x00, 0x00, 
  0x03, 0x00, 0x00, 0x00, 0x0c, 0x00, 0x00, 0x00, 0x0b, 0x00, 0x00, 0x00, 
  0x0a, 0x00, 0x00, 0x00, 0x00, 0x00, 0x0a, 0x00, 0x0c, 0x00, 0x00, 0x00, 
  0x08, 0x00, 0x04, 0x00, 0x0a, 0x00, 0x00, 0x00, 0x08, 0x00, 0x00, 0x00, 
  0x0c, 0x00, 0x00, 0x00, 0x01, 0x00, 0x00, 0x00, 0x0c, 0x00, 0x00, 0x00, 
  0x01, 0x00, 0x00, 0x00, 0x00, 0x00, 0x00, 0x00, 0x01, 0x00, 0x00, 0x00, 
  0x18, 0x00, 0x00, 0x00, 0x01, 0x00, 0x00, 0x00, 0x00, 0x00, 0x00, 0x00, 
  0x19, 0x00, 0x00, 0x00, 0x88, 0x0f, 0x00, 0x00, 0x10, 0x0f, 0x00, 0x00, 
  0xb8, 0x0e, 0x00, 0x00, 0x64, 0x0e, 0x00, 0x00, 0xd4, 0x0d, 0x00, 0x00, 
  0x40, 0x0d, 0x00, 0x00, 0x04, 0x0c, 0x00, 0x00, 0xe0, 0x0a, 0x00, 0x00, 
  0xc4, 0x09, 0x00, 0x00, 0xf0, 0x08, 0x00, 0x00, 0x04, 0x08, 0x00, 0x00, 
  0x60, 0x07, 0x00, 0x00, 0xdc, 0x06, 0x00, 0x00, 0xf0, 0x05, 0x00, 0x00, 
  0x5c, 0x05, 0x00, 0x00, 0x70, 0x04, 0x00, 0x00, 0xdc, 0x03, 0x00, 0x00, 
  0x8c, 0x03, 0x00, 0x00, 0x38, 0x03, 0x00, 0x00, 0xe0, 0x02, 0x00, 0x00, 
  0x5c, 0x02, 0x00, 0x00, 0xa0, 0x01, 0x00, 0x00, 0x04, 0x01, 0x00, 0x00, 
  0x80, 0x00, 0x00, 0x00, 0x04, 0x00, 0x00, 0x00, 0xf2, 0xf0, 0xff, 0xff, 
  0x00, 0x00, 0x00, 0x01, 0x18, 0x00, 0x00, 0x00, 0x20, 0x00, 0x00, 0x00, 
  0x3c, 0x00, 0x00, 0x00, 0x19, 0x00, 0x00, 0x00, 0x00, 0x00, 0x00, 0x03, 
  0x50, 0x00, 0x00, 0x00, 0x02, 0x00, 0x00, 0x00, 0xff, 0xff, 0xff, 0xff, 
  0x04, 0x00, 0x00, 0x00, 0xd4, 0xf0, 0xff, 0xff, 0x08, 0x00, 0x00, 0x00, 
  0x10, 0x00, 0x00, 0x00, 0x01, 0x00, 0x00, 0x00, 0x00, 0x00, 0x00, 0x00, 
  0x00, 0x00, 0x00, 0x00, 0x01, 0x00, 0x00, 0x00, 0x00, 0x00, 0x80, 0x3b, 
  0x1b, 0x00, 0x00, 0x00, 0x53, 0x74, 0x61, 0x74, 0x65, 0x66, 0x75, 0x6c, 
  0x50, 0x61, 0x72, 0x74, 0x69, 0x74, 0x69, 0x6f, 0x6e, 0x65, 0x64, 0x43, 
  0x61, 0x6c, 0x6c, 0x5f, 0x31, 0x3a, 0x30, 0x00, 0x02, 0x00, 0x00, 0x00, 
  0x01, 0x00, 0x00, 0x00, 0x04, 0x00, 0x00, 0x00, 0x6a, 0xf1, 0xff, 0xff, 
  0x00, 0x00, 0x00, 0x01, 0x18, 0x00, 0x00, 0x00, 0x20, 0x00, 0x00, 0x00, 
  0x40, 0x00, 0x00, 0x00, 0x18, 0x00, 0x00, 0x00, 0x00, 0x00, 0x00, 0x09, 
  0x58, 0x00, 0x00, 0x00, 0x02, 0x00, 0x00, 0x00, 0xff, 0xff, 0xff, 0xff, 
  0x04, 0x00, 0x00, 0x00, 0x4c, 0xf1, 0xff, 0xff, 0x08, 0x00, 0x00, 0x00, 
  0x14, 0x00, 0x00, 0x00, 0x01, 0x00, 0x00, 0x00, 0x80, 0xff, 0xff, 0xff, 
  0xff, 0xff, 0xff, 0xff, 0x00, 0x00, 0x00, 0x00, 0x01, 0x00, 0x00, 0x00, 
  0x00, 0x00, 0x80, 0x3b, 0x1c, 0x00, 0x00, 0x00, 0x53, 0x74, 0x61, 0x74, 
  0x65, 0x66, 0x75, 0x6c, 0x50, 0x61, 0x72, 0x74, 0x69, 0x74, 0x69, 0x6f, 
  0x6e, 0x65, 0x64, 0x43, 0x61, 0x6c, 0x6c, 0x5f, 0x31, 0x3a, 0x30, 0x31, 
  0x00, 0x00, 0x00, 0x00, 0x02, 0x00, 0x00, 0x00, 0x01, 0x00, 0x00, 0x00, 
  0x04, 0x00, 0x00, 0x00, 0xea, 0xf1, 0xff, 0xff, 0x00, 0x00, 0x00, 0x01, 
  0x18, 0x00, 0x00, 0x00, 0x20, 0x00, 0x00, 0x00, 0x3c, 0x00, 0x00, 0x00, 
  0x17, 0x00, 0x00, 0x00, 0x00, 0x00, 0x00, 0x09, 0x70, 0x00, 0x00, 0x00, 
  0x02, 0x00, 0x00, 0x00, 0xff, 0xff, 0xff, 0xff, 0x04, 0x00, 0x00, 0x00, 
  0xcc, 0xf1, 0xff, 0xff, 0x08, 0x00, 0x00, 0x00, 0x10, 0x00, 0x00, 0x00, 
  0x01, 0x00, 0x00, 0x00, 0x6d, 0x00, 0x00, 0x00, 0x00, 0x00, 0x00, 0x00, 
  0x01, 0x00, 0x00, 0x00, 0x76, 0x47, 0x01, 0x3e, 0x3a, 0x00, 0x00, 0x00, 
  0x73, 0x65, 0x71, 0x75, 0x65, 0x6e, 0x74, 0x69, 0x61, 0x6c, 0x5f, 0x31, 
  0x2f, 0x6f, 0x75, 0x74, 0x70, 0x75, 0x74, 0x5f, 0x31, 0x2f, 0x4d, 0x61, 
  0x74, 0x4d, 0x75, 0x6c, 0x3b, 0x73, 0x65, 0x71, 0x75, 0x65, 0x6e, 0x74, 
  0x69, 0x61, 0x6c, 0x5f, 0x31, 0x2f, 0x6f, 0x75, 0x74, 0x70, 0x75, 0x74, 
  0x5f, 0x31, 0x2f, 0x42, 0x69, 0x61, 0x73, 0x41, 0x64, 0x64, 0x00, 0x00, 
  0x02, 0x00, 0x00, 0x00, 0x01, 0x00, 0x00, 0x00, 0x04, 0x00, 0x00, 0x00, 
  0x82, 0xf2, 0xff, 0xff, 0x00, 0x00, 0x00, 0x01, 0x18, 0x00, 0x00, 0x00, 
  0x20, 0x00, 0x00, 0x00, 0x40, 0x00, 0x00, 0x00, 0x16, 0x00, 0x00, 0x00, 
  0x00, 0x00, 0x00, 0x09, 0x90, 0x00, 0x00, 0x00, 0x02, 0x00, 0x00, 0x00, 
  0xff, 0xff, 0xff, 0xff, 0x10, 0x00, 0x00, 0x00, 0x64, 0xf2, 0xff, 0xff, 
  0x08, 0x00, 0x00, 0x00, 0x14, 0x00, 0x00, 0x00, 0x01, 0x00, 0x00, 0x00, 
  0x80, 0xff, 0xff, 0xff, 0xff, 0xff, 0xff, 0xff, 0x00, 0x00, 0x00, 0x00, 
  0x01, 0x00, 0x00, 0x00, 0xc3, 0x8f, 0x07, 0x3e, 0x55, 0x00, 0x00, 0x00, 
  0x73, 0x65, 0x71, 0x75, 0x65, 0x6e, 0x74, 0x69, 0x61, 0x6c, 0x5f, 0x31, 
  0x2f, 0x64, 0x65, 0x6e, 0x73, 0x65, 0x31, 0x5f, 0x31, 0x2f, 0x4d, 0x61, 
  0x74, 0x4d, 0x75, 0x6c, 0x3b, 0x73, 0x65, 0x71, 0x75, 0x65, 0x6e, 0x74, 
  0x69, 0x61, 0x6c, 0x5f, 0x31, 0x2f, 0x64, 0x65, 0x6e, 0x73, 0x65, 0x31, 
  0x5f, 0x31, 0x2f, 0x52, 0x65, 0x6c, 0x75, 0x3b, 0x73, 0x65, 0x71, 0x75, 
  0x65, 0x6e, 0x74, 0x69, 0x61, 0x6c, 0x5f, 0x31, 0x2f, 0x64, 0x65, 0x6e, 
  0x73, 0x65, 0x31, 0x5f, 0x31, 0x2f, 0x42, 0x69, 0x61, 0x73, 0x41, 0x64, 
  0x64, 0x00, 0x00, 0x00, 0x02, 0x00, 0x00, 0x00, 0x01, 0x00, 0x00, 0x00, 
  0x10, 0x00, 0x00, 0x00, 0x3a, 0xf3, 0xff, 0xff, 0x00, 0x00, 0x00, 0x01, 
  0x18, 0x00, 0x00, 0x00, 0x20, 0x00, 0x00, 0x00, 0x40, 0x00, 0x00, 0x00, 
  0x15, 0x00, 0x00, 0x00, 0x00, 0x00, 0x00, 0x09, 0x58, 0x00, 0x00, 0x00, 
  0x02, 0x00, 0x00, 0x00, 0xff, 0xff, 0xff, 0xff, 0x00, 0x02, 0x00, 0x00, 
  0x1c, 0xf3, 0xff, 0xff, 0x08, 0x00, 0x00, 0x00, 0x14, 0x00, 0x00, 0x00, 
  0x01, 0x00, 0x00, 0x00, 0x80, 0xff, 0xff, 0xff, 0xff, 0xff, 0xff, 0xff, 
  0x00, 0x00, 0x00, 0x00, 0x01, 0x00, 0x00, 0x00, 0x4c, 0xe0, 0xb9, 0x3c, 
  0x1e, 0x00, 0x00, 0x00, 0x73, 0x65, 0x71, 0x75, 0x65, 0x6e, 0x74, 0x69, 
  0x61, 0x6c, 0x5f, 0x31, 0x2f, 0x66, 0x6c, 0x61, 0x74, 0x74, 0x65, 0x6e, 
  0x5f, 0x31, 0x2f, 0x52, 0x65, 0x73, 0x68, 0x61, 0x70, 0x65, 0x00, 0x00, 
  0x02, 0x00, 0x00, 0x00, 0x01, 0x00, 0x00, 0x00, 0x00, 0x02, 0x00, 0x00, 
  0x2e, 0xf4, 0xff, 0xff, 0x00, 0x00, 0x00, 0x01, 0x14, 0x00, 0x00, 0x00, 
  0x14, 0x00, 0x00, 0x00, 0x14, 0x00, 0x00, 0x00, 0x00, 0x00, 0x00, 0x02, 
  0x34, 0x00, 0x00, 0x00, 0x18, 0xf4, 0xff, 0xff, 0x24, 0x00, 0x00, 0x00, 
  0x73, 0x65, 0x71, 0x75, 0x65, 0x6e, 0x74, 0x69, 0x61, 0x6c, 0x5f, 0x31, 
  0x2f, 0x66, 0x6c, 0x61, 0x74, 0x74, 0x65, 0x6e, 0x5f, 0x31, 0x2f, 0x52, 
  0x65, 0x73, 0x68, 0x61, 0x70, 0x65, 0x2f, 0x73, 0x68, 0x61, 0x70, 0x65, 
  0x00, 0x00, 0x00, 0x00, 0x01, 0x00, 0x00, 0x00, 0x02, 0x00, 0x00, 0x00, 
  0x82, 0xf4, 0xff, 0xff, 0x00, 0x00, 0x00, 0x01, 0x14, 0x00, 0x00, 0x00, 
  0x14, 0x00, 0x00, 0x00, 0x13, 0x00, 0x00, 0x00, 0x00, 0x00, 0x00, 0x02, 
  0x34, 0x00, 0x00, 0x00, 0x6c, 0xf4, 0xff, 0xff, 0x24, 0x00, 0x00, 0x00, 
  0x73, 0x65, 0x71, 0x75, 0x65, 0x6e, 0x74, 0x69, 0x61, 0x6c, 0x5f, 0x31, 
  0x2f, 0x66, 0x6c, 0x61, 0x74, 0x74, 0x65, 0x6e, 0x5f, 0x31, 0x2f, 0x73, 
  0x74, 0x72, 0x69, 0x64, 0x65, 0x64, 0x5f, 0x73, 0x6c, 0x69, 0x63, 0x65, 
  0x00, 0x00, 0x00, 0x00, 0x00, 0x00, 0x00, 0x00, 0xd2, 0xf4, 0xff, 0xff, 
  0x00, 0x00, 0x00, 0x01, 0x14, 0x00, 0x00, 0x00, 0x14, 0x00, 0x00, 0x00, 
  0x12, 0x00, 0x00, 0x00, 0x00, 0x00, 0x00, 0x02, 0x2c, 0x00, 0x00, 0x00, 
  0xbc, 0xf4, 0xff, 0xff, 0x1c, 0x00, 0x00, 0x00, 0x73, 0x65, 0x71, 0x75, 
  0x65, 0x6e, 0x74, 0x69, 0x61, 0x6c, 0x5f, 0x31, 0x2f, 0x66, 0x6c, 0x61, 
  0x74, 0x74, 0x65, 0x6e, 0x5f, 0x31, 0x2f, 0x53, 0x68, 0x61, 0x70, 0x65, 
  0x00, 0x00, 0x00, 0x00, 0x01, 0x00, 0x00, 0x00, 0x04, 0x00, 0x00, 0x00, 
  0xaa, 0xf4, 0xff, 0xff, 0x00, 0x00, 0x00, 0x01, 0x18, 0x00, 0x00, 0x00, 
  0x28, 0x00, 0x00, 0x00, 0x48, 0x00, 0x00, 0x00, 0x11, 0x00, 0x00, 0x00, 
  0x00, 0x00, 0x00, 0x09, 0x60, 0x00, 0x00, 0x00, 0x04, 0x00, 0x00, 0x00, 
  0xff, 0xff, 0xff, 0xff, 0x08, 0x00, 0x00, 0x00, 0x08, 0x00, 0x00, 0x00, 
  0x08, 0x00, 0x00, 0x00, 0x94, 0xf4, 0xff, 0xff, 0x08, 0x00, 0x00, 0x00, 
  0x14, 0x00, 0x00, 0x00, 0x01, 0x00, 0x00, 0x00, 0x80, 0xff, 0xff, 0xff, 
  0xff, 0xff, 0xff, 0xff, 0x00, 0x00, 0x00, 0x00, 0x01, 0x00, 0x00, 0x00, 
  0x4c, 0xe0, 0xb9, 0x3c, 0x1e, 0x00, 0x00, 0x00, 0x73, 0x65, 0x71, 0x75, 
  0x65, 0x6e, 0x74, 0x69, 0x61, 0x6c, 0x5f, 0x31, 0x2f, 0x70, 0x6f, 0x6f, 
  0x6c, 0x32, 0x5f, 0x31, 0x2f, 0x4d, 0x61, 0x78, 0x50, 0x6f, 0x6f, 0x6c, 
  0x32, 0x64, 0x00, 0x00, 0x04, 0x00, 0x00, 0x00, 0x01, 0x00, 0x00, 0x00, 
  0x08, 0x00, 0x00, 0x00, 0x08, 0x00, 0x00, 0x00, 0x08, 0x00, 0x00, 0x00, 
  0x3a, 0xf5, 0xff, 0xff, 0x00, 0x00, 0x00, 0x01, 0x18, 0x00, 0x00, 0x00, 
  0x28, 0x00, 0x00, 0x00, 0x48, 0x00, 0x00, 0x00, 0x10, 0x00, 0x00, 0x00, 
  0x00, 0x00, 0x00, 0x09, 0xb8, 0x00, 0x00, 0x00, 0x04, 0x00, 0x00, 0x00, 
  0xff, 0xff, 0xff, 0xff, 0x10, 0x00, 0x00, 0x00, 0x10, 0x00, 0x00, 0x00, 
  0x08, 0x00, 0x00, 0x00, 0x24, 0xf5, 0xff, 0xff, 0x08, 0x00, 0x00, 0x00, 
  0x14, 0x00, 0x00, 0x00, 0x01, 0x00, 0x00, 0x00, 0x80, 0xff, 0xff, 0xff, 
  0xff, 0xff, 0xff, 0xff, 0x00, 0x00, 0x00, 0x00, 0x01, 0x00, 0x00, 0x00, 
  0x4c, 0xe0, 0xb9, 0x3c, 0x75, 0x00, 0x00, 0x00, 0x73, 0x65, 0x71, 0x75, 
  0x65, 0x6e, 0x74, 0x69, 0x61, 0x6c, 0x5f, 0x31, 0x2f, 0x63, 0x6f, 0x6e, 
  0x76, 0x32, 0x5f, 0x31, 0x2f, 0x52, 0x65, 0x6c, 0x75, 0x3b, 0x73, 0x65, 
  0x71, 0x75, 0x65, 0x6e, 0x74, 0x69, 0x61, 0x6c, 0x5f, 0x31, 0x2f, 0x63, 
  0x6f, 0x6e, 0x76, 0x32, 0x5f, 0x31, 0x2f, 0x42, 0x69, 0x61, 0x73, 0x41, 
  0x64, 0x64, 0x3b, 0x73, 0x65, 0x71, 0x75, 0x65, 0x6e, 0x74, 0x69, 0x61, 
  0x6c, 0x5f, 0x31, 0x2f, 0x63, 0x6f, 0x6e, 0x76, 0x32, 0x5f, 0x31, 0x2f, 
  0x63, 0x6f, 0x6e, 0x76, 0x6f, 0x6c, 0x75, 0x74, 0x69, 0x6f, 0x6e, 0x3b, 
  0x73, 0x65, 0x71, 0x75, 0x65, 0x6e, 0x74, 0x69, 0x61, 0x6c, 0x5f, 0x31, 
  0x2f, 0x63, 0x6f, 0x6e, 0x76, 0x32, 0x5f, 0x31, 0x2f, 0x53, 0x71, 0x75, 
  0x65, 0x65, 0x7a, 0x65, 0x31, 0x00, 0x00, 0x00, 0x04, 0x00, 0x00, 0x00, 
  0x01, 0x00, 0x00, 0x00, 0x10, 0x00, 0x00, 0x00, 0x10, 0x00, 0x00, 0x00, 
  0x08, 0x00, 0x00, 0x00, 0x22, 0xf6, 0xff, 0xff, 0x00, 0x00, 0x00, 0x01, 
  0x18, 0x00, 0x00, 0x00, 0x28, 0x00, 0x00, 0x00, 0x48, 0x00, 0x00, 0x00, 
  0x0f, 0x00, 0x00, 0x00, 0x00, 0x00, 0x00, 0x09, 0x60, 0x00, 0x00, 0x00, 
  0x04, 0x00, 0x00, 0x00, 0xff, 0xff, 0xff, 0xff, 0x10, 0x00, 0x00, 0x00, 
  0x10, 0x00, 0x00, 0x00, 0x04, 0x00, 0x00, 0x00, 0x0c, 0xf6, 0xff, 0xff, 
  0x08, 0x00, 0x00, 0x00, 0x14, 0x00, 0x00, 0x00, 0x01, 0x00, 0x00, 0x00, 
  0x80, 0xff, 0xff, 0xff, 0xff, 0xff, 0xff, 0xff, 0x00, 0x00, 0x00, 0x00, 
  0x01, 0x00, 0x00, 0x00, 0xf0, 0x05, 0x4c, 0x3c, 0x1e, 0x00, 0x00, 0x00, 
  0x73, 0x65, 0x71, 0x75, 0x65, 0x6e, 0x74, 0x69, 0x61, 0x6c, 0x5f, 0x31, 
  0x2f, 0x70, 0x6f, 0x6f, 0x6c, 0x31, 0x5f, 0x31, 0x2f, 0x4d, 0x61, 0x78, 
  0x50, 0x6f, 0x6f, 0x6c, 0x32, 0x64, 0x00, 0x00, 0x04, 0x00, 0x00, 0x00, 
  0x01, 0x00, 0x00, 0x00, 0x10, 0x00, 0x00, 0x00, 0x10, 0x00, 0x00, 0x00, 
  0x04, 0x00, 0x00, 0x00, 0xb2, 0xf6, 0xff, 0xff, 0x00, 0x00, 0x00, 0x01, 
  0x18, 0x00, 0x00, 0x00, 0x28, 0x00, 0x00, 0x00, 0x48, 0x00, 0x00, 0x00, 
  0x0e, 0x00, 0x00, 0x00, 0x00, 0x00, 0x00, 0x09, 0xb8, 0x00, 0x00, 0x00, 
  0x04, 0x00, 0x00, 0x00, 0xff, 0xff, 0xff, 0xff, 0x20, 0x00, 0x00, 0x00, 
  0x20, 0x00, 0x00, 0x00, 0x04, 0x00, 0x00, 0x00, 0x9c, 0xf6, 0xff, 0xff, 
  0x08, 0x00, 0x00, 0x00, 0x14, 0x00, 0x00, 0x00, 0x01, 0x00, 0x00, 0x00, 
  0x80, 0xff, 0xff, 0xff, 0xff, 0xff, 0xff, 0xff, 0x00, 0x00, 0x00, 0x00, 
  0x01, 0x00, 0x00, 0x00, 0xf0, 0x05, 0x4c, 0x3c, 0x75, 0x00, 0x00, 0x00, 
  0x73, 0x65, 0x71, 0x75, 0x65, 0x6e, 0x74, 0x69, 0x61, 0x6c, 0x5f, 0x31, 
  0x2f, 0x63, 0x6f, 0x6e, 0x76, 0x31, 0x5f, 0x31, 0x2f, 0x52, 0x65, 0x6c, 
  0x75, 0x3b, 0x73, 0x65, 0x71, 0x75, 0x65, 0x6e, 0x74, 0x69, 0x61, 0x6c, 
  0x5f, 0x31, 0x2f, 0x63, 0x6f, 0x6e, 0x76, 0x31, 0x5f, 0x31, 0x2f, 0x42, 
  0x69, 0x61, 0x73, 0x41, 0x64, 0x64, 0x3b, 0x73, 0x65, 0x71, 0x75, 0x65, 
  0x6e, 0x74, 0x69, 0x61, 0x6c, 0x5f, 0x31, 0x2f, 0x63, 0x6f, 0x6e, 0x76, 
  0x31, 0x5f, 0x31, 0x2f, 0x63, 0x6f, 0x6e, 0x76, 0x6f, 0x6c, 0x75, 0x74, 
  0x69, 0x6f, 0x6e, 0x3b, 0x73, 0x65, 0x71, 0x75, 0x65, 0x6e, 0x74, 0x69, 
  0x61, 0x6c, 0x5f, 0x31, 0x2f, 0x63, 0x6f, 0x6e, 0x76, 0x31, 0x5f, 0x31, 
  0x2f, 0x53, 0x71, 0x75, 0x65, 0x65, 0x7a, 0x65, 0x31, 0x00, 0x00, 0x00, 
  0x04, 0x00, 0x00, 0x00, 0x01, 0x00, 0x00, 0x00, 0x20, 0x00, 0x00, 0x00, 
  0x20, 0x00, 0x00, 0x00, 0x04, 0x00, 0x00, 0x00, 0x9a, 0xf7, 0xff, 0xff, 
  0x00, 0x00, 0x00, 0x01, 0x18, 0x00, 0x00, 0x00, 0x28, 0x00, 0x00, 0x00, 
  0x48, 0x00, 0x00, 0x00, 0x0d, 0x00, 0x00, 0x00, 0x00, 0x00, 0x00, 0x09, 
  0x50, 0x00, 0x00, 0x00, 0x04, 0x00, 0x00, 0x00, 0xff, 0xff, 0xff, 0xff, 
  0x20, 0x00, 0x00, 0x00, 0x20, 0x00, 0x00, 0x00, 0x03, 0x00, 0x00, 0x00, 
  0x84, 0xf7, 0xff, 0xff, 0x08, 0x00, 0x00, 0x00, 0x14, 0x00, 0x00, 0x00, 
  0x01, 0x00, 0x00, 0x00, 0x80, 0xff, 0xff, 0xff, 0xff, 0xff, 0xff, 0xff, 
  0x00, 0x00, 0x00, 0x00, 0x01, 0x00, 0x00, 0x00, 0x81, 0x80, 0x80, 0x3b, 
  0x0c, 0x00, 0x00, 0x00, 0x74, 0x66, 0x6c, 0x2e, 0x71, 0x75, 0x61, 0x6e, 
  0x74, 0x69, 0x7a, 0x65, 0x00, 0x00, 0x00, 0x00, 0x04, 0x00, 0x00, 0x00, 
  0x01, 0x00, 0x00, 0x00, 0x20, 0x00, 0x00, 0x00, 0x20, 0x00, 0x00, 0x00, 
  0x03, 0x00, 0x00, 0x00, 0x8e, 0xf8, 0xff, 0xff, 0x00, 0x00, 0x00, 0x01, 
  0x14, 0x00, 0x00, 0x00, 0x58, 0x00, 0x00, 0x00, 0x0c, 0x00, 0x00, 0x00, 
  0x00, 0x00, 0x00, 0x09, 0x74, 0x00, 0x00, 0x00, 0xec, 0xf7, 0xff, 0xff, 
  0x08, 0x00, 0x00, 0x00, 0x2c, 0x00, 0x00, 0x00, 0x04, 0x00, 0x00, 0x00, 
  0x00, 0x00, 0x00, 0x00, 0x00, 0x00, 0x00, 0x00, 0x00, 0x00, 0x00, 0x00, 
  0x00, 0x00, 0x00, 0x00, 0x00, 0x00, 0x00, 0x00, 0x00, 0x00, 0x00, 0x00, 
  0x00, 0x00, 0x00, 0x00, 0x00, 0x00, 0x00, 0x00, 0x00, 0x00, 0x00, 0x00, 
  0x04, 0x00, 0x00, 0x00, 0x2d, 0xed, 0x49, 0x3b, 0xa6, 0x78, 0x42, 0x3b, 
  0x69, 0x5c, 0x2a, 0x3b, 0x55, 0x07, 0x4a, 0x3b, 0x20, 0x00, 0x00, 0x00, 
  0x73, 0x65, 0x71, 0x75, 0x65, 0x6e, 0x74, 0x69, 0x61, 0x6c, 0x5f, 0x31, 
  0x2f, 0x63, 0x6f, 0x6e, 0x76, 0x31, 0x5f, 0x31, 0x2f, 0x63, 0x6f, 0x6e, 
  0x76, 0x6f, 0x6c, 0x75, 0x74, 0x69, 0x6f, 0x6e, 0x00, 0x00, 0x00, 0x00, 
  0x04, 0x00, 0x00, 0x00, 0x04, 0x00, 0x00, 0x00, 0x03, 0x00, 0x00, 0x00, 
  0x03, 0x00, 0x00, 0x00, 0x03, 0x00, 0x00, 0x00, 0x2e, 0xf9, 0xff, 0xff, 
  0x00, 0x00, 0x00, 0x01, 0x14, 0x00, 0x00, 0x00, 0x58, 0x00, 0x00, 0x00, 
  0x0b, 0x00, 0x00, 0x00, 0x00, 0x00, 0x00, 0x02, 0xc8, 0x00, 0x00, 0x00, 
  0x8c, 0xf8, 0xff, 0xff, 0x08, 0x00, 0x00, 0x00, 0x2c, 0x00, 0x00, 0x00, 
  0x04, 0x00, 0x00, 0x00, 0x00, 0x00, 0x00, 0x00, 0x00, 0x00, 0x00, 0x00, 
  0x00, 0x00, 0x00, 0x00, 0x00, 0x00, 0x00, 0x00, 0x00, 0x00, 0x00, 0x00, 
  0x00, 0x00, 0x00, 0x00, 0x00, 0x00, 0x00, 0x00, 0x00, 0x00, 0x00, 0x00, 
  0x00, 0x00, 0x00, 0x00, 0x04, 0x00, 0x00, 0x00, 0xe6, 0xb7, 0x4a, 0x37, 
  0xe3, 0x3b, 0x43, 0x37, 0x71, 0x07, 0x2b, 0x37, 0x28, 0xd2, 0x4a, 0x37, 
  0x74, 0x00, 0x00, 0x00, 0x73, 0x65, 0x71, 0x75, 0x65, 0x6e, 0x74, 0x69, 
  0x61, 0x6c, 0x5f, 0x31, 0x2f, 0x63, 0x6f, 0x6e, 0x76, 0x31, 0x5f, 0x31, 
  0x2f, 0x52, 0x65, 0x6c, 0x75, 0x3b, 0x73, 0x65, 0x71, 0x75, 0x65, 0x6e, 
  0x74, 0x69, 0x61, 0x6c, 0x5f, 0x31, 0x2f, 0x63, 0x6f, 0x6e, 0x76, 0x31, 
  0x5f, 0x31, 0x2f, 0x42, 0x69, 0x61, 0x73, 0x41, 0x64, 0x64, 0x3b, 0x73, 
  0x65, 0x71, 0x75, 0x65, 0x6e, 0x74, 0x69, 0x61, 0x6c, 0x5f, 0x31, 0x2f, 
  0x63, 0x6f, 0x6e, 0x76, 0x31, 0x5f, 0x31, 0x2f, 0x63, 0x6f, 0x6e, 0x76, 
  0x6f, 0x6c, 0x75, 0x74, 0x69, 0x6f, 0x6e, 0x3b, 0x73, 0x65, 0x71, 0x75, 
  0x65, 0x6e, 0x74, 0x69, 0x61, 0x6c, 0x5f, 0x31, 0x2f, 0x63, 0x6f, 0x6e, 
  0x76, 0x31, 0x5f, 0x31, 0x2f, 0x53, 0x71, 0x75, 0x65, 0x65, 0x7a, 0x65, 
  0x00, 0x00, 0x00, 0x00, 0x01, 0x00, 0x00, 0x00, 0x04, 0x00, 0x00, 0x00, 
  0x16, 0xfa, 0xff, 0xff, 0x00, 0x00, 0x00, 0x01, 0x14, 0x00, 0x00, 0x00, 
  0x88, 0x00, 0x00, 0x00, 0x0a, 0x00, 0x00, 0x00, 0x00, 0x00, 0x00, 0x09, 
  0xa4, 0x00, 0x00, 0x00, 0x74, 0xf9, 0xff, 0xff, 0x08, 0x00, 0x00, 0x00, 
  0x4c, 0x00, 0x00, 0x00, 0x08, 0x00, 0x00, 0x00, 0x00, 0x00, 0x00, 0x00, 
  0x00, 0x00, 0x00, 0x00, 0x00, 0x00, 0x00, 0x00, 0x00, 0x00, 0x00, 0x00, 
  0x00, 0x00, 0x00, 0x00, 0x00, 0x00, 0x00, 0x00, 0x00, 0x00, 0x00, 0x00, 
  0x00, 0x00, 0x00, 0x00, 0x00, 0x00, 0x00, 0x00, 0x00, 0x00, 0x00, 0x00, 
  0x00, 0x00, 0x00, 0x00, 0x00, 0x00, 0x00, 0x00, 0x00, 0x00, 0x00, 0x00, 
  0x00, 0x00, 0x00, 0x00, 0x00, 0x00, 0x00, 0x00, 0x00, 0x00, 0x00, 0x00, 
  0x00, 0x00, 0x00, 0x00, 0x08, 0x00, 0x00, 0x00, 0x58, 0x51, 0x59, 0x3b, 
  0xd6, 0xd0, 0x40, 0x3b, 0x4b, 0x08, 0x35, 0x3b, 0xb9, 0xc1, 0x14, 0x3b, 
  0x9d, 0xca, 0x01, 0x3b, 0x26, 0x95, 0x20, 0x3b, 0x98, 0x38, 0x0e, 0x3b, 
  0x42, 0x00, 0x1c, 0x3b, 0x20, 0x00, 0x00, 0x00, 0x73, 0x65, 0x71, 0x75, 
  0x65, 0x6e, 0x74, 0x69, 0x61, 0x6c, 0x5f, 0x31, 0x2f, 0x63, 0x6f, 0x6e, 
  0x76, 0x32, 0x5f, 0x31, 0x2f, 0x63, 0x6f, 0x6e, 0x76, 0x6f, 0x6c, 0x75, 
  0x74, 0x69, 0x6f, 0x6e, 0x00, 0x00, 0x00, 0x00, 0x04, 0x00, 0x00, 0x00, 
  0x08, 0x00, 0x00, 0x00, 0x03, 0x00, 0x00, 0x00, 0x03, 0x00, 0x00, 0x00, 
  0x04, 0x00, 0x00, 0x00, 0xe6, 0xfa, 0xff, 0xff, 0x00, 0x00, 0x00, 0x01, 
  0x14, 0x00, 0x00, 0x00, 0x88, 0x00, 0x00, 0x00, 0x09, 0x00, 0x00, 0x00, 
  0x00, 0x00, 0x00, 0x02, 0xf8, 0x00, 0x00, 0x00, 0x44, 0xfa, 0xff, 0xff, 
  0x08, 0x00, 0x00, 0x00, 0x4c, 0x00, 0x00, 0x00, 0x08, 0x00, 0x00, 0x00, 
  0x00, 0x00, 0x00, 0x00, 0x00, 0x00, 0x00, 0x00, 0x00, 0x00, 0x00, 0x00, 
  0x00, 0x00, 0x00, 0x00, 0x00, 0x00, 0x00, 0x00, 0x00, 0x00, 0x00, 0x00, 
  0x00, 0x00, 0x00, 0x00, 0x00, 0x00, 0x00, 0x00, 0x00, 0x00, 0x00, 0x00, 
  0x00, 0x00, 0x00, 0x00, 0x00, 0x00, 0x00, 0x00, 0x00, 0x00, 0x00, 0x00, 
  0x00, 0x00, 0x00, 0x00, 0x00, 0x00, 0x00, 0x00, 0x00, 0x00, 0x00, 0x00, 
  0x00, 0x00, 0x00, 0x00, 0x00, 0x00, 0x00, 0x00, 0x08, 0x00, 0x00, 0x00, 
  0xdc, 0x31, 0x2d, 0x38, 0xe3, 0xaa, 0x19, 0x38, 0xcf, 0x46, 0x10, 0x38, 
  0xa5, 0x1b, 0xed, 0x37, 0xef, 0xe0, 0xce, 0x37, 0x27, 0xf5, 0xff, 0x37, 
  0xcb, 0xb0, 0xe2, 0x37, 0xa6, 0xa7, 0xf8, 0x37, 0x74, 0x00, 0x00, 0x00, 
  0x73, 0x65, 0x71, 0x75, 0x65, 0x6e, 0x74, 0x69, 0x61, 0x6c, 0x5f, 0x31, 
  0x2f, 0x63, 0x6f, 0x6e, 0x76, 0x32, 0x5f, 0x31, 0x2f, 0x52, 0x65, 0x6c, 
  0x75, 0x3b, 0x73, 0x65, 0x71, 0x75, 0x65, 0x6e, 0x74, 0x69, 0x61, 0x6c, 
  0x5f, 0x31, 0x2f, 0x63, 0x6f, 0x6e, 0x76, 0x32, 0x5f, 0x31, 0x2f, 0x42, 
  0x69, 0x61, 0x73, 0x41, 0x64, 0x64, 0x3b, 0x73, 0x65, 0x71, 0x75, 0x65, 
  0x6e, 0x74, 0x69, 0x61, 0x6c, 0x5f, 0x31, 0x2f, 0x63, 0x6f, 0x6e, 0x76, 
  0x32, 0x5f, 0x31, 0x2f, 0x63, 0x6f, 0x6e, 0x76, 0x6f, 0x6c, 0x75, 0x74, 
  0x69, 0x6f, 0x6e, 0x3b, 0x73, 0x65, 0x71, 0x75, 0x65, 0x6e, 0x74, 0x69, 
  0x61, 0x6c, 0x5f, 0x31, 0x2f, 0x63, 0x6f, 0x6e, 0x76, 0x32, 0x5f, 0x31, 
  0x2f, 0x53, 0x71, 0x75, 0x65, 0x65, 0x7a, 0x65, 0x00, 0x00, 0x00, 0x00, 
  0x01, 0x00, 0x00, 0x00, 0x08, 0x00, 0x00, 0x00, 0xfe, 0xfb, 0xff, 0xff, 
  0x00, 0x00, 0x00, 0x01, 0x14, 0x00, 0x00, 0x00, 0xe4, 0x00, 0x00, 0x00, 
  0x08, 0x00, 0x00, 0x00, 0x00, 0x00, 0x00, 0x09, 0xfc, 0x00, 0x00, 0x00, 
  0x5c, 0xfb, 0xff, 0xff, 0x08, 0x00, 0x00, 0x00, 0x88, 0x00, 0x00, 0x00, 
  0x10, 0x00, 0x00, 0x00, 0x00, 0x00, 0x00, 0x00, 0x00, 0x00, 0x00, 0x00, 
  0x00, 0x00, 0x00, 0x00, 0x00, 0x00, 0x00, 0x00, 0x00, 0x00, 0x00, 0x00, 
  0x00, 0x00, 0x00, 0x00, 0x00, 0x00, 0x00, 0x00, 0x00, 0x00, 0x00, 0x00, 
  0x00, 0x00, 0x00, 0x00, 0x00, 0x00, 0x00, 0x00, 0x00, 0x00, 0x00, 0x00, 
  0x00, 0x00, 0x00, 0x00, 0x00, 0x00, 0x00, 0x00, 0x00, 0x00, 0x00, 0x00, 
  0x00, 0x00, 0x00, 0x00, 0x00, 0x00, 0x00, 0x00, 0x00, 0x00, 0x00, 0x00, 
  0x00, 0x00, 0x00, 0x00, 0x00, 0x00, 0x00, 0x00, 0x00, 0x00, 0x00, 0x00, 
  0x00, 0x00, 0x00, 0x00, 0x00, 0x00, 0x00, 0x00, 0x00, 0x00, 0x00, 0x00, 
  0x00, 0x00, 0x00, 0x00, 0x00, 0x00, 0x00, 0x00, 0x00, 0x00, 0x00, 0x00, 
  0x00, 0x00, 0x00, 0x00, 0x00, 0x00, 0x00, 0x00, 0x00, 0x00, 0x00, 0x00, 
  0x00, 0x00, 0x00, 0x00, 0x00, 0x00, 0x00, 0x00, 0x00, 0x00, 0x00, 0x00, 
  0x10, 0x00, 0x00, 0x00, 0x3a, 0xca, 0xcb, 0x3a, 0xde, 0x83, 0x1e, 0x3b, 
  0x03, 0x4c, 0x6b, 0x3a, 0xa6, 0x7a, 0xaf, 0x3a, 0xdf, 0xe6, 0x7d, 0x3a, 
  0xf7, 0x69, 0xc0, 0x3a, 0x2a, 0x2b, 0x6c, 0x3a, 0x30, 0xd0, 0x5b, 0x3a, 
  0xbb, 0x24, 0x19, 0x3b, 0xd0, 0x52, 0x5b, 0x3a, 0x7c, 0x6f, 0x66, 0x3a, 
  0xa7, 0x81, 0x5b, 0x3a, 0xae, 0x4a, 0x03, 0x3b, 0xbd, 0xab, 0xbb, 0x3a, 
  0x5d, 0x81, 0xae, 0x3a, 0x05, 0x90, 0x03, 0x3b, 0x1c, 0x00, 0x00, 0x00, 
  0x73, 0x65, 0x71, 0x75, 0x65, 0x6e, 0x74, 0x69, 0x61, 0x6c, 0x5f, 0x31, 
  0x2f, 0x64, 0x65, 0x6e, 0x73, 0x65, 0x31, 0x5f, 0x31, 0x2f, 0x4d, 0x61, 
  0x74, 0x4d, 0x75, 0x6c, 0x00, 0x00, 0x00, 0x00, 0x02, 0x00, 0x00, 0x00, 
  0x10, 0x00, 0x00, 0x00, 0x00, 0x02, 0x00, 0x00, 0x1e, 0xfd, 0xff, 0xff, 
  0x00, 0x00, 0x00, 0x01, 0x14, 0x00, 0x00, 0x00, 0xe4, 0x00, 0x00, 0x00, 
  0x07, 0x00, 0x00, 0x00, 0x00, 0x00, 0x00, 0x02, 0x18, 0x01, 0x00, 0x00, 
  0x7c, 0xfc, 0xff, 0xff, 0x08, 0x00, 0x00, 0x00, 0x88, 0x00, 0x00, 0x00, 
  0x10, 0x00, 0x00, 0x00, 0x00, 0x00, 0x00, 0x00, 0x00, 0x00, 0x00, 0x00, 
  0x00, 0x00, 0x00, 0x00, 0x00, 0x00, 0x00, 0x00, 0x00, 0x00, 0x00, 0x00, 
  0x00, 0x00, 0x00, 0x00, 0x00, 0x00, 0x00, 0x00, 0x00, 0x00, 0x00, 0x00, 
  0x00, 0x00, 0x00, 0x00, 0x00, 0x00, 0x00, 0x00, 0x00, 0x00, 0x00, 0x00, 
  0x00, 0x00, 0x00, 0x00, 0x00, 0x00, 0x00, 0x00, 0x00, 0x00, 0x00, 0x00, 
  0x00, 0x00, 0x00, 0x00, 0x00, 0x00, 0x00, 0x00, 0x00, 0x00, 0x00, 0x00, 
  0x00, 0x00, 0x00, 0x00, 0x00, 0x00, 0x00, 0x00, 0x00, 0x00, 0x00, 0x00, 
  0x00, 0x00, 0x00, 0x00, 0x00, 0x00, 0x00, 0x00, 0x00, 0x00, 0x00, 0x00, 
  0x00, 0x00, 0x00, 0x00, 0x00, 0x00, 0x00, 0x00, 0x00, 0x00, 0x00, 0x00, 
  0x00, 0x00, 0x00, 0x00, 0x00, 0x00, 0x00, 0x00, 0x00, 0x00, 0x00, 0x00, 
  0x00, 0x00, 0x00, 0x00, 0x00, 0x00, 0x00, 0x00, 0x00, 0x00, 0x00, 0x00, 
  0x10, 0x00, 0x00, 0x00, 0xb1, 0xf7, 0x13, 0x38, 0x5c, 0x30, 0x66, 0x38, 
  0x17, 0xd8, 0xaa, 0x37, 0xc3, 0xd2, 0xfe, 0x37, 0x4d, 0x5a, 0xb8, 0x37, 
  0x29, 0xb5, 0x0b, 0x38, 0x1d, 0x7a, 0xab, 0x37, 0x0a, 0x9a, 0x9f, 0x37, 
  0x71, 0x63, 0x5e, 0x38, 0x02, 0x3f, 0x9f, 0x37, 0x77, 0x50, 0xa7, 0x37, 
  0x04, 0x61, 0x9f, 0x37, 0x00, 0xa8, 0x3e, 0x38, 0x8a, 0x43, 0x08, 0x38, 
  0xc2, 0x68, 0xfd, 0x37, 0xb1, 0x0c, 0x3f, 0x38, 0x38, 0x00, 0x00, 0x00, 
  0x73, 0x65, 0x71, 0x75, 0x65, 0x6e, 0x74, 0x69, 0x61, 0x6c, 0x5f, 0x31, 
  0x2f, 0x64, 0x65, 0x6e, 0x73, 0x65, 0x31, 0x5f, 0x31, 0x2f, 0x52, 0x65, 
  0x6c, 0x75, 0x3b, 0x73, 0x65, 0x71, 0x75, 0x65, 0x6e, 0x74, 0x69, 0x61, 
  0x6c, 0x5f, 0x31, 0x2f, 0x64, 0x65, 0x6e, 0x73, 0x65, 0x31, 0x5f, 0x31, 
  0x2f, 0x42, 0x69, 0x61, 0x73, 0x41, 0x64, 0x64, 0x00, 0x00, 0x00, 0x00, 
  0x01, 0x00, 0x00, 0x00, 0x10, 0x00, 0x00, 0x00, 0x56, 0xfe, 0xff, 0xff, 
  0x00, 0x00, 0x00, 0x01, 0x14, 0x00, 0x00, 0x00, 0x54, 0x00, 0x00, 0x00, 
  0x06, 0x00, 0x00, 0x00, 0x00, 0x00, 0x00, 0x09, 0x6c, 0x00, 0x00, 0x00, 
  0xb4, 0xfd, 0xff, 0xff, 0x08, 0x00, 0x00, 0x00, 0x28, 0x00, 0x00, 0x00, 
  0x04, 0x00, 0x00, 0x00, 0x00, 0x00, 0x00, 0x00, 0x00, 0x00, 0x00, 0x00, 
  0x00, 0x00, 0x00, 0x00, 0x00, 0x00, 0x00, 0x00, 0x00, 0x00, 0x00, 0x00, 
  0x00, 0x00, 0x00, 0x00, 0x00, 0x00, 0x00, 0x00, 0x00, 0x00, 0x00, 0x00, 
  0x04, 0x00, 0x00, 0x00, 0x77, 0x42, 0x85, 0x3b, 0xee, 0xd4, 0x62, 0x3b, 
  0xec, 0x20, 0x98, 0x3b, 0x7f, 0x37, 0x7d, 0x3b, 0x1c, 0x00, 0x00, 0x00, 
  0x73, 0x65, 0x71, 0x75, 0x65, 0x6e, 0x74, 0x69, 0x61, 0x6c, 0x5f, 0x31, 
  0x2f, 0x6f, 0x75, 0x74, 0x70, 0x75, 0x74, 0x5f, 0x31, 0x2f, 0x4d, 0x61, 
  0x74, 0x4d, 0x75, 0x6c, 0x00, 0x00, 0x00, 0x00, 0x02, 0x00, 0x00, 0x00, 
  0x04, 0x00, 0x00, 0x00, 0x10, 0x00, 0x00, 0x00, 0xe6, 0xfe, 0xff, 0xff, 
  0x00, 0x00, 0x00, 0x01, 0x14, 0x00, 0x00, 0x00, 0x54, 0x00, 0x00, 0x00, 
  0x05, 0x00, 0x00, 0x00, 0x00, 0x00, 0x00, 0x02, 0x6c, 0x00, 0x00, 0x00, 
  0x44, 0xfe, 0xff, 0xff, 0x08, 0x00, 0x00, 0x00, 0x28, 0x00, 0x00, 0x00, 
  0x04, 0x00, 0x00, 0x00, 0x00, 0x00, 0x00, 0x00, 0x00, 0x00, 0x00, 0x00, 
  0x00, 0x00, 0x00, 0x00, 0x00, 0x00, 0x00, 0x00, 0x00, 0x00, 0x00, 0x00, 
  0x00, 0x00, 0x00, 0x00, 0x00, 0x00, 0x00, 0x00, 0x00, 0x00, 0x00, 0x00, 
  0x04, 0x00, 0x00, 0x00, 0xc5, 0x21, 0x0d, 0x3a, 0x56, 0x3b, 0xf0, 0x39, 
  0x95, 0x1d, 0x21, 0x3a, 0x77, 0x16, 0x06, 0x3a, 0x1d, 0x00, 0x00, 0x00, 
  0x73, 0x65, 0x71, 0x75, 0x65, 0x6e, 0x74, 0x69, 0x61, 0x6c, 0x5f, 0x31, 
  0x2f, 0x6f, 0x75, 0x74, 0x70, 0x75, 0x74, 0x5f, 0x31, 0x2f, 0x42, 0x69, 
  0x61, 0x73, 0x41, 0x64, 0x64, 0x00, 0x00, 0x00, 0x01, 0x00, 0x00, 0x00, 
  0x04, 0x00, 0x00, 0x00, 0x72, 0xff, 0xff, 0xff, 0x00, 0x00, 0x00, 0x01, 
  0x14, 0x00, 0x00, 0x00, 0x14, 0x00, 0x00, 0x00, 0x04, 0x00, 0x00, 0x00, 
  0x00, 0x00, 0x00, 0x02, 0x34, 0x00, 0x00, 0x00, 0x5c, 0xff, 0xff, 0xff, 
  0x26, 0x00, 0x00, 0x00, 0x73, 0x65, 0x71, 0x75, 0x65, 0x6e, 0x74, 0x69, 
  0x61, 0x6c, 0x5f, 0x31, 0x2f, 0x66, 0x6c, 0x61, 0x74, 0x74, 0x65, 0x6e, 
  0x5f, 0x31, 0x2f, 0x52, 0x65, 0x73, 0x68, 0x61, 0x70, 0x65, 0x2f, 0x73, 
  0x68, 0x61, 0x70, 0x65, 0x2f, 0x31, 0x00, 0x00, 0x00, 0x00, 0x00, 0x00, 
  0xc2, 0xff, 0xff, 0xff, 0x00, 0x00, 0x00, 0x01, 0x14, 0x00, 0x00, 0x00, 
  0x14, 0x00, 0x00, 0x00, 0x03, 0x00, 0x00, 0x00, 0x00, 0x00, 0x00, 0x02, 
  0x1c, 0x00, 0x00, 0x00, 0xac, 0xff, 0xff, 0xff, 0x0e, 0x00, 0x00, 0x00, 
  0x61, 0x72, 0x69, 0x74, 0x68, 0x2e, 0x63, 0x6f, 0x6e, 0x73, 0x74, 0x61, 
  0x6e, 0x74, 0x00, 0x00, 0x01, 0x00, 0x00, 0x00, 0x01, 0x00, 0x00, 0x00, 
  0x00, 0x00, 0x16, 0x00, 0x1c, 0x00, 0x18, 0x00, 0x17, 0x00, 0x10, 0x00, 
  0x0c, 0x00, 0x08, 0x00, 0x00, 0x00, 0x00, 0x00, 0x00, 0x00, 0x07, 0x00, 
  0x16, 0x00, 0x00, 0x00, 0x00, 0x00, 0x00, 0x01, 0x18, 0x00, 0x00, 0x00, 
  0x18, 0x00, 0x00, 0x00, 0x02, 0x00, 0x00, 0x00, 0x00, 0x00, 0x00, 0x02, 
  0x3c, 0x00, 0x00, 0x00, 0x04, 0x00, 0x04, 0x00, 0x04, 0x00, 0x00, 0x00, 
  0x2a, 0x00, 0x00, 0x00, 0x73, 0x65, 0x71, 0x75, 0x65, 0x6e, 0x74, 0x69, 
  0x61, 0x6c, 0x5f, 0x31, 0x2f, 0x66, 0x6c, 0x61, 0x74, 0x74, 0x65, 0x6e, 
  0x5f, 0x31, 0x2f, 0x73, 0x74, 0x72, 0x69, 0x64, 0x65, 0x64, 0x5f, 0x73, 
  0x6c, 0x69, 0x63, 0x65, 0x2f, 0x73, 0x74, 0x61, 0x63, 0x6b, 0x00, 0x00, 
  0x01, 0x00, 0x00, 0x00, 0x01, 0x00, 0x00, 0x00, 0x00, 0x00, 0x16, 0x00, 
  0x20, 0x00, 0x1c, 0x00, 0x1b, 0x00, 0x14, 0x00, 0x10, 0x00, 0x0c, 0x00, 
  0x00, 0x00, 0x00, 0x00, 0x08, 0x00, 0x07, 0x00, 0x16, 0x00, 0x00, 0x00, 
  0x00, 0x00, 0x00, 0x01, 0x18, 0x00, 0x00, 0x00, 0x34, 0x00, 0x00, 0x00, 
  0x54, 0x00, 0x00, 0x00, 0x01, 0x00, 0x00, 0x00, 0x00, 0x00, 0x00, 0x03, 
  0x64, 0x00, 0x00, 0x00, 0x04, 0x00, 0x00, 0x00, 0xff, 0xff, 0xff, 0xff, 
  0x20, 0x00, 0x00, 0x00, 0x20, 0x00, 0x00, 0x00, 0x03, 0x00, 0x00, 0x00, 
  0x0c, 0x00, 0x0c, 0x00, 0x00, 0x00, 0x00, 0x00, 0x08, 0x00, 0x04, 0x00, 
  0x0c, 0x00, 0x00, 0x00, 0x08, 0x00, 0x00, 0x00, 0x14, 0x00, 0x00, 0x00, 
  0x01, 0x00, 0x00, 0x00, 0x00, 0x00, 0x00, 0x00, 0x00, 0x00, 0x00, 0x00, 
  0x00, 0x00, 0x00, 0x00, 0x01, 0x00, 0x00, 0x00, 0x81, 0x80, 0x80, 0x3b, 
  0x17, 0x00, 0x00, 0x00, 0x73, 0x65, 0x72, 0x76, 0x69, 0x6e, 0x67, 0x5f, 
  0x64, 0x65, 0x66, 0x61, 0x75, 0x6c, 0x74, 0x5f, 0x69, 0x6e, 0x70, 0x75, 
  0x74, 0x3a, 0x30, 0x00, 0x04, 0x00, 0x00, 0x00, 0x01, 0x00, 0x00, 0x00, 
  0x20, 0x00, 0x00, 0x00, 0x20, 0x00, 0x00, 0x00, 0x03, 0x00, 0x00, 0x00, 
  0x09, 0x00, 0x00, 0x00, 0xac, 0x00, 0x00, 0x00, 0x8c, 0x00, 0x00, 0x00, 
  0x6c, 0x00, 0x00, 0x00, 0x5c, 0x00, 0x00, 0x00, 0x4c, 0x00, 0x00, 0x00, 
  0x3c, 0x00, 0x00, 0x00, 0x2c, 0x00, 0x00, 0x00, 0x18, 0x00, 0x00, 0x00, 
  0x04, 0x00, 0x00, 0x00, 0xa0, 0xff, 0xff, 0xff, 0x19, 0x00, 0x00, 0x00, 
  0x02, 0x00, 0x00, 0x00, 0x00, 0x00, 0x00, 0x19, 0xb0, 0xff, 0xff, 0xff, 
  0x09, 0x00, 0x00, 0x00, 0x04, 0x00, 0x00, 0x00, 0x00, 0x00, 0x00, 0x09, 
  0xa4, 0xff, 0xff, 0xff, 0x16, 0x00, 0x00, 0x00, 0x00, 0x00, 0x00, 0x16, 
  0xb0, 0xff, 0xff, 0xff, 0x53, 0x00, 0x00, 0x00, 0x00, 0x00, 0x00, 0x53, 
  0xbc, 0xff, 0xff, 0xff, 0x2d, 0x00, 0x00, 0x00, 0x00, 0x00, 0x00, 0x2d, 
  0xc8, 0xff, 0xff, 0xff, 0x4d, 0x00, 0x00, 0x00, 0x00, 0x00, 0x00, 0x4d, 
  0xf0, 0xff, 0xff, 0xff, 0x11, 0x00, 0x00, 0x00, 0x02, 0x00, 0x00, 0x00, 
  0x00, 0x00, 0x00, 0x11, 0x0c, 0x00, 0x10, 0x00, 0x0f, 0x00, 0x00, 0x00, 
  0x08, 0x00, 0x04, 0x00, 0x0c, 0x00, 0x00, 0x00, 0x03, 0x00, 0x00, 0x00, 
  0x03, 0x00, 0x00, 0x00, 0x00, 0x00, 0x00, 0x03, 0x0c, 0x00, 0x0c, 0x00, 
  0x0b, 0x00, 0x00, 0x00, 0x00, 0x00, 0x04, 0x00, 0x0c, 0x00, 0x00, 0x00, 
  0x72, 0x00, 0x00, 0x00, 0x00, 0x00, 0x00, 0x72
};
const unsigned int model_uint8_len = 14744;

#ifdef __cplusplus
}
#endif

#endif /* MODEL_UINT8_H */
